{
  "version": "1.0",
  "truncation": null,
  "padding": null,
  "added_tokens": [
    {
      "id": 0,
      "content": "[UNK]",
      "single_word": false,
      "lstrip": false,
      "rstrip": false,
      "normalized": false,
      "special": true
    },
    {
      "id": 1,
      "content": "[CLS]",
      "single_word": false,
      "lstrip": false,
      "rstrip": false,
      "normalized": false,
      "special": true
    },
    {
      "id": 2,
      "content": "[SEP]",
      "single_word": false,
      "lstrip": false,
      "rstrip": false,
      "normalized": false,
      "special": true
    },
    {
      "id": 3,
      "content": "[PAD]",
      "single_word": false,
      "lstrip": false,
      "rstrip": false,
      "normalized": false,
      "special": true
    },
    {
      "id": 4,
      "content": "[MASK]",
      "single_word": false,
      "lstrip": false,
      "rstrip": false,
      "normalized": false,
      "special": true
    }
  ],
  "normalizer": null,
  "pre_tokenizer": {
    "type": "Whitespace"
  },
  "post_processor": null,
  "decoder": null,
  "model": {
    "type": "BPE",
    "dropout": null,
    "unk_token": "[UNK]",
    "continuing_subword_prefix": null,
    "end_of_word_suffix": null,
    "fuse_unk": false,
    "vocab": {
      "[UNK]": 0,
      "[CLS]": 1,
      "[SEP]": 2,
      "[PAD]": 3,
      "[MASK]": 4,
      "!": 5,
      "\"": 6,
      "'": 7,
      "(": 8,
      ")": 9,
      "*": 10,
      ",": 11,
      "-": 12,
      ".": 13,
      "0": 14,
      "3": 15,
      ":": 16,
      ";": 17,
      "?": 18,
      "A": 19,
      "B": 20,
      "C": 21,
      "D": 22,
      "E": 23,
      "F": 24,
      "G": 25,
      "H": 26,
      "I": 27,
      "J": 28,
      "K": 29,
      "L": 30,
      "M": 31,
      "N": 32,
      "O": 33,
      "P": 34,
      "Q": 35,
      "R": 36,
      "S": 37,
      "T": 38,
      "U": 39,
      "V": 40,
      "W": 41,
      "X": 42,
      "Y": 43,
      "Z": 44,
      "[": 45,
      "]": 46,
      "_": 47,
      "`": 48,
      "a": 49,
      "b": 50,
      "c": 51,
      "d": 52,
      "e": 53,
      "f": 54,
      "g": 55,
      "h": 56,
      "i": 57,
      "j": 58,
      "k": 59,
      "l": 60,
      "m": 61,
      "n": 62,
      "o": 63,
      "p": 64,
      "q": 65,
      "r": 66,
      "s": 67,
      "t": 68,
      "u": 69,
      "v": 70,
      "w": 71,
      "x": 72,
      "y": 73,
      "z": 74,
      "he": 75,
      "the": 76,
      "in": 77,
      "an": 78,
      "ou": 79,
      "it": 80,
      "er": 81,
      "at": 82,
      "on": 83,
      "ing": 84,
      "re": 85,
      "to": 86,
      "and": 87,
      "th": 88,
      "as": 89,
      "ed": 90,
      "en": 91,
      "id": 92,
      "ll": 93,
      "ce": 94,
      "se": 95,
      "li": 96,
      "sa": 97,
      "of": 98,
      "le": 99,
      "ar": 100,
      "or": 101,
      "she": 102,
      "ow": 103,
      "is": 104,
      "be": 105,
      "me": 106,
      "said": 107,
      "ad": 108,
      "you": 109,
      "st": 110,
      ",'": 111,
      "Ali": 112,
      "Alice": 113,
      "ly": 114,
      "was": 115,
      "ch": 116,
      "ver": 117,
      "her": 118,
      "ld": 119,
      "ut": 120,
      "gh": 121,
      "all": 122,
      "ot": 123,
      "!'": 124,
      "that": 125,
      "wh": 126,
      "--": 127,
      "so": 128,
      "ur": 129,
      "ve": 130,
      "out": 131,
      "oo": 132,
      "ent": 133,
      "ke": 134,
      "ght": 135,
      "wit": 136,
      "ould": 137,
      "ge": 138,
      "ab": 139,
      "tle": 140,
      "ter": 141,
      "with": 142,
      "sh": 143,
      "al": 144,
      "nd": 145,
      "ri": 146,
      "es": 147,
      ".'": 148,
      "up": 149,
      "The": 150,
      "ay": 151,
      "had": 152,
      "one": 153,
      "ir": 154,
      "ne": 155,
      "ti": 156,
      "ck": 157,
      "for": 158,
      "thing": 159,
      "very": 160,
      "?'": 161,
      "do": 162,
      "not": 163,
      "ther": 164,
      "but": 165,
      "ook": 166,
      "now": 167,
      "ain": 168,
      "ha": 169,
      "ue": 170,
      "ry": 171,
      "ro": 172,
      "own": 173,
      "lit": 174,
      "ag": 175,
      "they": 176,
      "if": 177,
      "sel": 178,
      "little": 179,
      "no": 180,
      "Wh": 181,
      "his": 182,
      "self": 183,
      "pe": 184,
      "fe": 185,
      "im": 186,
      "this": 187,
      "mo": 188,
      "su": 189,
      "mu": 190,
      "ss": 191,
      "are": 192,
      "ard": 193,
      "see": 194,
      "ill": 195,
      "look": 196,
      "ra": 197,
      "ouse": 198,
      "beg": 199,
      "po": 200,
      "de": 201,
      "down": 202,
      "ell": 203,
      "wer": 204,
      "ion": 205,
      "ound": 206,
      "whe": 207,
      "way": 208,
      "ought": 209,
      "know": 210,
      "ite": 211,
      "what": 212,
      "un": 213,
      "about": 214,
      "ink": 215,
      "again": 216,
      "them": 217,
      "go": 218,
      "our": 219,
      "like": 220,
      "ca": 221,
      "went": 222,
      "were": 223,
      "herself": 224,
      "could": 225,
      "would": 226,
      "che": 227,
      "thought": 228,
      "off": 229,
      "some": 230,
      "time": 231,
      "co": 232,
      "ong": 233,
      "am": 234,
      "ice": 235,
      "fo": 236,
      "ind": 237,
      "Que": 238,
      "did": 239,
      "Queen": 240,
      "other": 241,
      "qu": 242,
      "get": 243,
      "have": 244,
      "et": 245,
      "us": 246,
      "then": 247,
      "any": 248,
      "atter": 249,
      "ex": 250,
      "say": 251,
      "bit": 252,
      "gr": 253,
      "pp": 254,
      "ting": 255,
      "when": 256,
      "ake": 257,
      "ock": 258,
      "ast": 259,
      "And": 260,
      "ea": 261,
      "si": 262,
      "head": 263,
      "into": 264,
      "there": 265,
      "ers": 266,
      "your": 267,
      "It": 268,
      "con": 269,
      "ju": 270,
      "who": 271,
      "whi": 272,
      "King": 273,
      "Tur": 274,
      "my": 275,
      "pl": 276,
      "ant": 277,
      "ph": 278,
      "tw": 279,
      "its": 280,
      "think": 281,
      "bo": 282,
      "can": 283,
      "king": 284,
      "wor": 285,
      "ous": 286,
      "reat": 287,
      "too": 288,
      "ried": 289,
      "Turtle": 290,
      "ct": 291,
      "began": 292,
      "ked": 293,
      "ling": 294,
      "Mock": 295,
      "by": 296,
      "mb": 297,
      "ple": 298,
      "Gry": 299,
      "Hatter": 300,
      "ul": 301,
      "phon": 302,
      "Gryphon": 303,
      "Cat": 304,
      "af": 305,
      "lo": 306,
      "mouse": 307,
      "won": 308,
      "much": 309,
      "got": 310,
      "vo": 311,
      "quite": 312,
      "don": 313,
      "ep": 314,
      "how": 315,
      "que": 316,
      "right": 317,
      "You": 318,
      "their": 319,
      "abbit": 320,
      "irst": 321,
      "ning": 322,
      "voice": 323,
      "ure": 324,
      "end": 325,
      "cour": 326,
      "per": 327,
      "only": 328,
      "ort": 329,
      "ack": 330,
      "der": 331,
      "ever": 332,
      "led": 333,
      "--'": 334,
      "more": 335,
      "just": 336,
      "ho": 337,
      "ight": 338,
      "here": 339,
      "ough": 340,
      "Du": 341,
      "Rabbit": 342,
      "him": 343,
      "ious": 344,
      "read": 345,
      "looked": 346,
      "first": 347,
      "mad": 348,
      "ment": 349,
      "tur": 350,
      "ree": 351,
      "never": 352,
      "must": 353,
      "TH": 354,
      "lar": 355,
      "ish": 356,
      "ear": 357,
      "over": 358,
      "round": 359,
      "tone": 360,
      "What": 361,
      "came": 362,
      "chess": 363,
      "fore": 364,
      "Duchess": 365,
      "pi": 366,
      "use": 367,
      "ven": 368,
      "ate": 369,
      "which": 370,
      "Dor": 371,
      "ER": 372,
      "How": 373,
      "long": 374,
      "min": 375,
      "well": 376,
      "erp": 377,
      "arch": 378,
      "should": 379,
      "such": 380,
      "seem": 381,
      "Dormouse": 382,
      "OU": 383,
      "She": 384,
      "back": 385,
      "great": 386,
      "mar": 387,
      "after": 388,
      "ave": 389,
      "day": 390,
      "el": 391,
      "ey": 392,
      "make": 393,
      "sid": 394,
      "been": 395,
      "rom": 396,
      "But": 397,
      "fa": 398,
      "hand": 399,
      "man": 400,
      "ance": 401,
      "ood": 402,
      "cur": 403,
      "last": 404,
      "put": 405,
      "before": 406,
      "Oh": 407,
      "cat": 408,
      "di": 409,
      "low": 410,
      "ru": 411,
      "ang": 412,
      "rep": 413,
      "March": 414,
      "from": 415,
      "ence": 416,
      "There": 417,
      "come": 418,
      "large": 419,
      "door": 420,
      "So": 421,
      "Th": 422,
      "ds": 423,
      "il": 424,
      "ull": 425,
      "art": 426,
      "able": 427,
      "looking": 428,
      "two": 429,
      "minut": 430,
      "Hare": 431,
      "ded": 432,
      "jur": 433,
      "la": 434,
      "spe": 435,
      "tell": 436,
      "und": 437,
      "once": 438,
      "things": 439,
      "moment": 440,
      "dear": 441,
      "Mouse": 442,
      "est": 443,
      "found": 444,
      "lt": 445,
      "sat": 446,
      "tal": 447,
      "heard": 448,
      "nothing": 449,
      "begin": 450,
      "grow": 451,
      "made": 452,
      "every": 453,
      "row": 454,
      "ta": 455,
      "we": 456,
      "xt": 457,
      "lied": 458,
      "near": 459,
      "eyes": 460,
      "replied": 461,
      "Do": 462,
      "ac": 463,
      "air": 464,
      "hur": 465,
      "might": 466,
      "remar": 467,
      "three": 468,
      "ened": 469,
      "ess": 470,
      "next": 471,
      "illar": 472,
      "pleas": 473,
      "wonder": 474,
      "turn": 475,
      "erpillar": 476,
      "No": 477,
      "ame": 478,
      "dy": 479,
      "even": 480,
      "te": 481,
      "try": 482,
      "ving": 483,
      "wa": 484,
      "arm": 485,
      "upon": 486,
      "Why": 487,
      "going": 488,
      "com": 489,
      "mber": 490,
      "Caterpillar": 491,
      "seemed": 492,
      "That": 493,
      "cut": 494,
      "den": 495,
      "good": 496,
      "ild": 497,
      "pt": 498,
      "wr": 499,
      "ass": 500,
      "ally": 501,
      "soon": 502,
      "without": 503,
      "course": 504,
      "jury": 505,
      "under": 506,
      "AT": 507,
      "away": 508,
      "find": 509,
      "ic": 510,
      "tre": 511,
      "tea": 512,
      "will": 513,
      "than": 514,
      "set": 515,
      "ist": 516,
      "rather": 517,
      "poor": 518,
      "getting": 519,
      "Co": 520,
      "ble": 521,
      "full": 522,
      "gl": 523,
      "gard": 524,
      "has": 525,
      "op": 526,
      "old": 527,
      "ran": 528,
      "sit": 529,
      "iting": 530,
      "ons": 531,
      "mean": 532,
      "happ": 533,
      "garden": 534,
      "Well": 535,
      "YOU": 536,
      "pre": 537,
      "sort": 538,
      "hed": 539,
      "same": 540,
      "added": 541,
      "ves": 542,
      "oom": 543,
      "shall": 544,
      "alf": 545,
      "felt": 546,
      "body": 547,
      "took": 548,
      "\"'": 549,
      "Of": 550,
      "fan": 551,
      "half": 552,
      "ive": 553,
      "ps": 554,
      "room": 555,
      "ten": 556,
      "table": 557,
      "another": 558,
      "child": 559,
      "till": 560,
      "does": 561,
      "White": 562,
      "while": 563,
      "quest": 564,
      "ures": 565,
      "He": 566,
      "call": 567,
      "gs": 568,
      "gu": 569,
      "kne": 570,
      "pa": 571,
      "pro": 572,
      "sm": 573,
      "ted": 574,
      "wal": 575,
      "wish": 576,
      "yet": 577,
      "less": 578,
      "Then": 579,
      "They": 580,
      "imp": 581,
      "used": 582,
      "words": 583,
      "side": 584,
      "minute": 585,
      "Come": 586,
      "question": 587,
      "cro": 588,
      "cried": 589,
      "eat": 590,
      "fin": 591,
      "house": 592,
      "spo": 593,
      "tain": 594,
      "take": 595,
      "ved": 596,
      "reme": 597,
      "llow": 598,
      "les": 599,
      "let": 600,
      "ool": 601,
      "peat": 602,
      "sure": 603,
      "face": 604,
      "curious": 605,
      "remember": 606,
      "ah": 607,
      "ak": 608,
      "ap": 609,
      "cer": 610,
      "dre": 611,
      "ecut": 612,
      "ful": 613,
      "hard": 614,
      "ig": 615,
      "ise": 616,
      "mid": 617,
      "tried": 618,
      "ze": 619,
      "hear": 620,
      "inter": 621,
      "repeat": 622,
      "leep": 623,
      "shed": 624,
      "being": 625,
      "feet": 626,
      "anything": 627,
      "execut": 628,
      "iously": 629,
      "Ma": 630,
      "VER": 631,
      "`--": 632,
      "age": 633,
      "aking": 634,
      "dden": 635,
      "ily": 636,
      "mor": 637,
      "sto": 638,
      "wat": 639,
      "enough": 640,
      "ently": 641,
      "cause": 642,
      "sil": 643,
      "fully": 644,
      "As": 645,
      "HA": 646,
      "This": 647,
      "cl": 648,
      "clo": 649,
      "hi": 650,
      "ished": 651,
      "sup": 652,
      "vent": 653,
      "ine": 654,
      "anx": 655,
      "oup": 656,
      "asked": 657,
      "haps": 658,
      "iff": 659,
      "iful": 660,
      "sudden": 661,
      "something": 662,
      "court": 663,
      "ears": 664,
      "turned": 665,
      "spoke": 666,
      ".)": 667,
      ":--": 668,
      "Bill": 669,
      "If": 670,
      "diff": 671,
      "fl": 672,
      "oot": 673,
      "pu": 674,
      "ange": 675,
      "oud": 676,
      "red": 677,
      "lef": 678,
      "lear": 679,
      "tily": 680,
      "Who": 681,
      "most": 682,
      "where": 683,
      "talking": 684,
      "hastily": 685,
      "doesn": 686,
      "certain": 687,
      "Din": 688,
      "Her": 689,
      "IS": 690,
      "bst": 691,
      "done": 692,
      "jo": 693,
      "pr": 694,
      "ring": 695,
      "sent": 696,
      "tr": 697,
      "tri": 698,
      "want": 699,
      "inde": 700,
      "ans": 701,
      "ity": 702,
      "ren": 703,
      "thr": 704,
      "idea": 705,
      "seen": 706,
      "lie": 707,
      "list": 708,
      "cho": 709,
      "change": 710,
      "aby": 711,
      "ared": 712,
      "raw": 713,
      "pose": 714,
      "foot": 715,
      "saying": 716,
      "pped": 717,
      "play": 718,
      "remark": 719,
      "called": 720,
      "small": 721,
      "high": 722,
      "indeed": 723,
      "IN": 724,
      "IT": 725,
      "bot": 726,
      "baby": 727,
      "creat": 728,
      "far": 729,
      "ire": 730,
      "ick": 731,
      "mou": 732,
      "may": 733,
      "ner": 734,
      "ness": 735,
      "part": 736,
      "sing": 737,
      "sur": 738,
      "tin": 739,
      "tter": 740,
      "zz": 741,
      "ited": 742,
      "itself": 743,
      "toge": 744,
      "sea": 745,
      "saw": 746,
      "because": 747,
      "better": 748,
      "ways": 749,
      "didn": 750,
      "plain": 751,
      "both": 752,
      "ctly": 753,
      "perhaps": 754,
      "THE": 755,
      "pie": 756,
      "speak": 757,
      "talk": 758,
      "beginning": 759,
      "tem": 760,
      "trying": 761,
      "happen": 762,
      "knew": 763,
      "VERY": 764,
      "close": 765,
      "anxiously": 766,
      "puzz": 767,
      "left": 768,
      "Dinah": 769,
      "answer": 770,
      "mouth": 771,
      "together": 772,
      "For": 773,
      "RE": 774,
      "Soup": 775,
      "book": 776,
      "cook": 777,
      "dance": 778,
      "ek": 779,
      "fall": 780,
      "gone": 781,
      "gave": 782,
      "game": 783,
      "hind": 784,
      "mp": 785,
      "ople": 786,
      "run": 787,
      "sw": 788,
      "leave": 789,
      "behind": 790,
      "stand": 791,
      "utiful": 792,
      "why": 793,
      "whis": 794,
      "kept": 795,
      "shri": 796,
      "Whi": 797,
      "people": 798,
      "fee": 799,
      "ssed": 800,
      "follow": 801,
      "size": 802,
      "whole": 803,
      "queer": 804,
      "turning": 805,
      "THAT": 806,
      "However": 807,
      "cats": 808,
      "sation": 809,
      "Dodo": 810,
      "hurried": 811,
      "please": 812,
      "hedge": 813,
      "appe": 814,
      "certainly": 815,
      "through": 816,
      "CHA": 817,
      "In": 818,
      "Now": 819,
      "PT": 820,
      "VE": 821,
      "Will": 822,
      "Yes": 823,
      "ace": 824,
      "bb": 825,
      "bir": 826,
      "bus": 827,
      "cti": 828,
      "ely": 829,
      "gra": 830,
      "glo": 831,
      "io": 832,
      "ither": 833,
      "jest": 834,
      "mind": 835,
      "many": 836,
      "name": 837,
      "rup": 838,
      "sl": 839,
      "sound": 840,
      "rest": 841,
      "ask": 842,
      "life": 843,
      "bea": 844,
      "still": 845,
      "ching": 846,
      "--\"": 847,
      "geon": 848,
      "shar": 849,
      "always": 850,
      "timid": 851,
      "butter": 852,
      "ards": 853,
      "raid": 854,
      "deal": 855,
      "wouldn": 856,
      "ches": 857,
      "among": 858,
      "conf": 859,
      "antly": 860,
      "afraid": 861,
      "ortant": 862,
      "erpent": 863,
      "else": 864,
      "hands": 865,
      "dire": 866,
      "everything": 867,
      "tail": 868,
      "hurry": 869,
      "important": 870,
      "finished": 871,
      "interrup": 872,
      "Majest": 873,
      "suppose": 874,
      "suddenly": 875,
      "join": 876,
      "CHAPT": 877,
      "Majesty": 878,
      "CHAPTER": 879,
      "An": 880,
      "Foot": 881,
      "HE": 882,
      "LD": 883,
      "LL": 884,
      "Let": 885,
      "ME": 886,
      "Pi": 887,
      "cou": 888,
      "dou": 889,
      "eag": 890,
      "fur": 891,
      "hall": 892,
      "ken": 893,
      "matter": 894,
      "ng": 895,
      "pass": 896,
      "rink": 897,
      "sis": 898,
      "sne": 899,
      "sleep": 900,
      "hel": 901,
      "these": 902,
      "inst": 903,
      "ates": 904,
      "ation": 905,
      "reas": 906,
      "really": 907,
      "ener": 908,
      "ense": 909,
      "live": 910,
      "ised": 911,
      "wasn": 912,
      "versation": 913,
      "ldi": 914,
      "soldi": 915,
      "keep": 916,
      "shout": 917,
      "deep": 918,
      "whether": 919,
      "ched": 920,
      "offend": 921,
      "times": 922,
      "grin": 923,
      "conversation": 924,
      "place": 925,
      "box": 926,
      "makes": 927,
      "minutes": 928,
      "growing": 929,
      "waited": 930,
      "glad": 931,
      "Off": 932,
      "hardly": 933,
      "execution": 934,
      "silence": 935,
      "Here": 936,
      "trial": 937,
      "listen": 938,
      "gloves": 939,
      "Footman": 940,
      "Pigeon": 941,
      "eager": 942,
      "sister": 943,
      "snee": 944,
      "AN": 945,
      "On": 946,
      "We": 947,
      "Whe": 948,
      "bright": 949,
      "cr": 950,
      "cid": 951,
      "car": 952,
      "cup": 953,
      "dist": 954,
      "fright": 955,
      "gener": 956,
      "oh": 957,
      "pers": 958,
      "pool": 959,
      "stoo": 960,
      "ts": 961,
      "tears": 962,
      "ued": 963,
      "ust": 964,
      "umb": 965,
      "wo": 966,
      "ws": 967,
      "wind": 968,
      "though": 969,
      "ase": 970,
      "best": 971,
      "belie": 972,
      "adv": 973,
      "chang": 974,
      "key": 975,
      "witness": 976,
      "sho": 977,
      "rily": 978,
      "cked": 979,
      "having": 980,
      "pper": 981,
      "sig": 982,
      "sight": 983,
      "yourself": 984,
      "jump": 985,
      "twink": 986,
      "thinking": 987,
      "word": 988,
      "quet": 989,
      "ready": 990,
      "sider": 991,
      "nearly": 992,
      "remarked": 993,
      "glass": 994,
      "open": 995,
      "opened": 996,
      "sitting": 997,
      "fanc": 998,
      "children": 999,
      "walked": 1000,
      "lessons": 1001,
      "dream": 1002,
      "repeated": 1003,
      "learn": 1004,
      "bottle": 1005,
      "creatures": 1006,
      "piece": 1007,
      "hedgeho": 1008,
      "sharp": 1009,
      "doub": 1010,
      "help": 1011,
      "reason": 1012,
      "soldiers": 1013,
      "offended": 1014,
      "When": 1015,
      ",)": 1016,
      "At": 1017,
      "Bea": 1018,
      "Don": 1019,
      "Kn": 1020,
      "NO": 1021,
      "Not": 1022,
      "Would": 1023,
      "bow": 1024,
      "bro": 1025,
      "cre": 1026,
      "care": 1027,
      "cla": 1028,
      "crow": 1029,
      "dle": 1030,
      "ect": 1031,
      "either": 1032,
      "four": 1033,
      "give": 1034,
      "ky": 1035,
      "kind": 1036,
      "loud": 1037,
      "ose": 1038,
      "pri": 1039,
      "rate": 1040,
      "sp": 1041,
      "serpent": 1042,
      "uc": 1043,
      "ught": 1044,
      "wood": 1045,
      "erent": 1046,
      "ati": 1047,
      "top": 1048,
      "those": 1049,
      "sever": 1050,
      "least": 1051,
      "order": 1052,
      "lying": 1053,
      "shook": 1054,
      "notic": 1055,
      "few": 1056,
      "sub": 1057,
      "against": 1058,
      "gold": 1059,
      "couldn": 1060,
      "qui": 1061,
      "explain": 1062,
      "heads": 1063,
      "contin": 1064,
      "work": 1065,
      "lobst": 1066,
      "hold": 1067,
      "pig": 1068,
      "OULD": 1069,
      "angrily": 1070,
      "coming": 1071,
      "tremb": 1072,
      "moral": 1073,
      "different": 1074,
      "party": 1075,
      "puzzled": 1076,
      "feeling": 1077,
      "birds": 1078,
      "timidly": 1079,
      "interrupted": 1080,
      "shouted": 1081,
      "sneez": 1082,
      "believe": 1083,
      "Knave": 1084,
      "continued": 1085,
      "),": 1086,
      "HAT": 1087,
      "NE": 1088,
      "actly": 1089,
      "br": 1090,
      "bat": 1091,
      "dly": 1092,
      "dry": 1093,
      "dread": 1094,
      "draw": 1095,
      "fish": 1096,
      "ged": 1097,
      "mn": 1098,
      "med": 1099,
      "making": 1100,
      "nat": 1101,
      "ned": 1102,
      "nice": 1103,
      "opp": 1104,
      "slow": 1105,
      "tree": 1106,
      "usu": 1107,
      "vid": 1108,
      "rea": 1109,
      "tory": 1110,
      "ash": 1111,
      "asleep": 1112,
      "ses": 1113,
      "light": 1114,
      "iss": 1115,
      "chin": 1116,
      "white": 1117,
      "whiting": 1118,
      "ket": 1119,
      "shroom": 1120,
      "upid": 1121,
      "ney": 1122,
      "forgot": 1123,
      "haven": 1124,
      "nose": 1125,
      "feel": 1126,
      "mushroom": 1127,
      "unity": 1128,
      "aming": 1129,
      "plan": 1130,
      "ult": 1131,
      "ending": 1132,
      "ortunity": 1133,
      "ately": 1134,
      "fact": 1135,
      "arts": 1136,
      "acle": 1137,
      "waiting": 1138,
      "comfor": 1139,
      "meaning": 1140,
      "gardeners": 1141,
      "YOUR": 1142,
      "proce": 1143,
      "croquet": 1144,
      "running": 1145,
      "whisper": 1146,
      "Which": 1147,
      "followed": 1148,
      "appeared": 1149,
      "ction": 1150,
      "slates": 1151,
      "beautiful": 1152,
      "confus": 1153,
      "eagerly": 1154,
      "distance": 1155,
      "window": 1156,
      "changed": 1157,
      "fancy": 1158,
      "doubt": 1159,
      "noticed": 1160,
      "opportunity": 1161,
      "slowly": 1162,
      "!\"": 1163,
      ".\"'": 1164,
      "Che": 1165,
      "First": 1166,
      "Five": 1167,
      "II": 1168,
      "Just": 1169,
      "LE": 1170,
      "Li": 1171,
      "Lor": 1172,
      "Soo": 1173,
      "WI": 1174,
      "WHAT": 1175,
      "aw": 1176,
      "bur": 1177,
      "bread": 1178,
      "ci": 1179,
      "cket": 1180,
      "dro": 1181,
      "eg": 1182,
      "evid": 1183,
      "fr": 1184,
      "ger": 1185,
      "gir": 1186,
      "hot": 1187,
      "hun": 1188,
      "ject": 1189,
      "ls": 1190,
      "mi": 1191,
      "mer": 1192,
      "py": 1193,
      "pup": 1194,
      "pard": 1195,
      "pair": 1196,
      "sch": 1197,
      "song": 1198,
      "scre": 1199,
      "umber": 1200,
      "vio": 1201,
      "int": 1202,
      "iness": 1203,
      "ank": 1204,
      "ery": 1205,
      "att": 1206,
      "aster": 1207,
      "lish": 1208,
      "sage": 1209,
      "lemn": 1210,
      "ark": 1211,
      "ary": 1212,
      "isn": 1213,
      "stupid": 1214,
      "chim": 1215,
      "solemn": 1216,
      "oop": 1217,
      "show": 1218,
      "shut": 1219,
      "shire": 1220,
      "hadn": 1221,
      "neck": 1222,
      "tired": 1223,
      "cking": 1224,
      "hair": 1225,
      "history": 1226,
      "moved": 1227,
      "ssi": 1228,
      "ssion": 1229,
      "begun": 1230,
      "possi": 1231,
      "decid": 1232,
      "delight": 1233,
      "goes": 1234,
      "others": 1235,
      "grown": 1236,
      "ground": 1237,
      "each": 1238,
      "sigh": 1239,
      "consider": 1240,
      "world": 1241,
      "ular": 1242,
      "however": 1243,
      "larger": 1244,
      "mine": 1245,
      "eye": 1246,
      "sides": 1247,
      "manage": 1248,
      "pleased": 1249,
      "wondering": 1250,
      "writing": 1251,
      "trees": 1252,
      "onsense": 1253,
      "happened": 1254,
      "pressed": 1255,
      "middle": 1256,
      "story": 1257,
      "watch": 1258,
      "silent": 1259,
      "venture": 1260,
      "ventures": 1261,
      "diffic": 1262,
      "flaming": 1263,
      "prised": 1264,
      "surprised": 1265,
      "temper": 1266,
      "tempt": 1267,
      "business": 1268,
      "frightened": 1269,
      "generally": 1270,
      "stood": 1271,
      "hedgehog": 1272,
      "NOT": 1273,
      "atiently": 1274,
      "subject": 1275,
      "golden": 1276,
      "quiet": 1277,
      "lobsters": 1278,
      "Cheshire": 1279,
      "Lory": 1280,
      "puppy": 1281,
      "pardon": 1282,
      "school": 1283,
      "viol": 1284,
      "chimney": 1285,
      "decided": 1286,
      "flamingo": 1287,
      "AS": 1288,
      "Af": 1289,
      "ARE": 1290,
      "BE": 1291,
      "Eng": 1292,
      "Hear": 1293,
      "One": 1294,
      "Two": 1295,
      "US": 1296,
      "bly": 1297,
      "cor": 1298,
      "des": 1299,
      "dare": 1300,
      "ef": 1301,
      "een": 1302,
      "fi": 1303,
      "fun": 1304,
      "ging": 1305,
      "gre": 1306,
      "hour": 1307,
      "iam": 1308,
      "lan": 1309,
      "lad": 1310,
      "late": 1311,
      "men": 1312,
      "nur": 1313,
      "nonsense": 1314,
      "obst": 1315,
      "rid": 1316,
      "rabbit": 1317,
      "sn": 1318,
      "sor": 1319,
      "sir": 1320,
      "sim": 1321,
      "tch": 1322,
      "tast": 1323,
      "tru": 1324,
      "tarts": 1325,
      "ug": 1326,
      "wise": 1327,
      "wards": 1328,
      "zes": 1329,
      "zard": 1330,
      "inea": 1331,
      "inches": 1332,
      "anim": 1333,
      "ouble": 1334,
      "ith": 1335,
      "itten": 1336,
      "ered": 1337,
      "told": 1338,
      "ide": 1339,
      "secon": 1340,
      "liked": 1341,
      "argu": 1342,
      "ison": 1343,
      "bel": 1344,
      "beat": 1345,
      "melan": 1346,
      "youth": 1347,
      "stay": 1348,
      "lded": 1349,
      "utter": 1350,
      "--`": 1351,
      "along": 1352,
      "almost": 1353,
      "tic": 1354,
      "roof": 1355,
      "litely": 1356,
      "aged": 1357,
      "pepper": 1358,
      "fell": 1359,
      "fetch": 1360,
      "imed": 1361,
      "ssing": 1362,
      "pocket": 1363,
      "politely": 1364,
      "cake": 1365,
      "exce": 1366,
      "excla": 1367,
      "myself": 1368,
      "worth": 1369,
      "hop": 1370,
      "himself": 1371,
      "reading": 1372,
      "pict": 1373,
      "pigs": 1374,
      "marked": 1375,
      "spect": 1376,
      "arms": 1377,
      "written": 1378,
      "understand": 1379,
      "present": 1380,
      "guess": 1381,
      "guinea": 1382,
      "smi": 1383,
      "finish": 1384,
      "ign": 1385,
      "interest": 1386,
      "executed": 1387,
      "trouble": 1388,
      "choly": 1389,
      "leaves": 1390,
      "shriek": 1391,
      "William": 1392,
      "grave": 1393,
      "executioner": 1394,
      "person": 1395,
      "shoes": 1396,
      "jumped": 1397,
      "broken": 1398,
      "trembling": 1399,
      "sneezing": 1400,
      "dreadfully": 1401,
      "forgotten": 1402,
      "procession": 1403,
      "Lizard": 1404,
      "evidence": 1405,
      "scream": 1406,
      "difficult": 1407,
      "After": 1408,
      "English": 1409,
      "Hearts": 1410,
      "simple": 1411,
      "animal": 1412,
      "melancholy": 1413,
      "exclaimed": 1414,
      "\"--": 1415,
      "';": 1416,
      "(`": 1417,
      "AR": 1418,
      "Ad": 1419,
      "Ah": 1420,
      "All": 1421,
      "Be": 1422,
      "Con": 1423,
      "Ex": 1424,
      "Lobst": 1425,
      "My": 1426,
      "Ple": 1427,
      "Qu": 1428,
      "Re": 1429,
      "SO": 1430,
      "Seven": 1431,
      "SHE": 1432,
      "Tell": 1433,
      "Very": 1434,
      "Where": 1435,
      "WOULD": 1436,
      "WAS": 1437,
      "aid": 1438,
      "ather": 1439,
      "app": 1440,
      "bs": 1441,
      "bring": 1442,
      "ced": 1443,
      "cle": 1444,
      "cry": 1445,
      "cru": 1446,
      "case": 1447,
      "din": 1448,
      "dis": 1449,
      "drink": 1450,
      "em": 1451,
      "eas": 1452,
      "ff": 1453,
      "fing": 1454,
      "fri": 1455,
      "fig": 1456,
      "fire": 1457,
      "gar": 1458,
      "hook": 1459,
      "ied": 1460,
      "ies": 1461,
      "ibb": 1462,
      "kid": 1463,
      "kno": 1464,
      "lay": 1465,
      "lock": 1466,
      "mon": 1467,
      "main": 1468,
      "mutter": 1469,
      "ny": 1470,
      "nif": 1471,
      "night": 1472,
      "nine": 1473,
      "nibb": 1474,
      "pit": 1475,
      "pack": 1476,
      "spl": 1477,
      "sque": 1478,
      "sky": 1479,
      "tu": 1480,
      "tra": 1481,
      "tun": 1482,
      "ush": 1483,
      "uck": 1484,
      "van": 1485,
      "vous": 1486,
      "wand": 1487,
      "wink": 1488,
      "height": 1489,
      "ince": 1490,
      "ret": 1491,
      "remain": 1492,
      "throw": 1493,
      "asking": 1494,
      "eds": 1495,
      "sadly": 1496,
      "often": 1497,
      "aring": 1498,
      "arrow": 1499,
      "betw": 1500,
      "become": 1501,
      "meant": 1502,
      "young": 1503,
      "stran": 1504,
      "stick": 1505,
      "allow": 1506,
      "ote": 1507,
      "shan": 1508,
      "shrink": 1509,
      "aloud": 1510,
      "altogether": 1511,
      "til": 1512,
      "doing": 1513,
      "notice": 1514,
      "ross": 1515,
      "nobody": 1516,
      "fellow": 1517,
      "sul": 1518,
      "race": 1519,
      "poin": 1520,
      "uncomfor": 1521,
      "until": 1522,
      "likely": 1523,
      "offic": 1524,
      "somebody": 1525,
      "sometimes": 1526,
      "folded": 1527,
      "indign": 1528,
      "exactly": 1529,
      "grun": 1530,
      "pping": 1531,
      "jud": 1532,
      "twice": 1533,
      "twel": 1534,
      "mbs": 1535,
      "love": 1536,
      "ends": 1537,
      "home": 1538,
      "hope": 1539,
      "shouldn": 1540,
      "seems": 1541,
      "curio": 1542,
      "angry": 1543,
      "reply": 1544,
      "juror": 1545,
      "speaking": 1546,
      "everybody": 1547,
      "taking": 1548,
      "nearer": 1549,
      "across": 1550,
      "airs": 1551,
      "evening": 1552,
      "waving": 1553,
      "write": 1554,
      "wrong": 1555,
      "treacle": 1556,
      "teacup": 1557,
      "sity": 1558,
      "means": 1559,
      "pret": 1560,
      "knee": 1561,
      "paws": 1562,
      "walk": 1563,
      "walking": 1564,
      "impatiently": 1565,
      "faces": 1566,
      "remembered": 1567,
      "drew": 1568,
      "morning": 1569,
      "stop": 1570,
      "water": 1571,
      "clock": 1572,
      "sentence": 1573,
      "rawling": 1574,
      "INK": 1575,
      "nervous": 1576,
      "surpri": 1577,
      "happens": 1578,
      "swim": 1579,
      "swam": 1580,
      "shrill": 1581,
      "While": 1582,
      "bbing": 1583,
      "sounded": 1584,
      "direction": 1585,
      "coun": 1586,
      "passed": 1587,
      "sleepy": 1588,
      "instantly": 1589,
      "sighed": 1590,
      "twinkle": 1591,
      "Beautiful": 1592,
      "crowded": 1593,
      "usual": 1594,
      "whispered": 1595,
      "confusion": 1596,
      "WILL": 1597,
      "dropped": 1598,
      "eggs": 1599,
      "quietly": 1600,
      "sorrow": 1601,
      "argument": 1602,
      "interesting": 1603,
      "Lobster": 1604,
      "Please": 1605,
      "finger": 1606,
      "hookah": 1607,
      "between": 1608,
      "strange": 1609,
      "curiosity": 1610,
      "surprise": 1611,
      ").": 1612,
      ",\"": 1613,
      ",\"'": 1614,
      ".\"": 1615,
      "?--": 1616,
      "AL": 1617,
      "Are": 1618,
      "ALL": 1619,
      "By": 1620,
      "CE": 1621,
      "Can": 1622,
      "Call": 1623,
      "CAN": 1624,
      "COULD": 1625,
      "EN": 1626,
      "Every": 1627,
      "Fren": 1628,
      "HI": 1629,
      "HO": 1630,
      "HER": 1631,
      "Hold": 1632,
      "ID": 1633,
      "ICE": 1634,
      "Mary": 1635,
      "Nor": 1636,
      "Never": 1637,
      "ONE": 1638,
      "Sh": 1639,
      "Sure": 1640,
      "Said": 1641,
      "TO": 1642,
      "TS": 1643,
      "Take": 1644,
      "With": 1645,
      "`\"": 1646,
      "au": 1647,
      "ax": 1648,
      "breat": 1649,
      "bank": 1650,
      "cus": 1651,
      "clear": 1652,
      "dish": 1653,
      "dark": 1654,
      "ead": 1655,
      "fon": 1656,
      "fly": 1657,
      "fill": 1658,
      "fast": 1659,
      "flow": 1660,
      "fla": 1661,
      "gue": 1662,
      "gently": 1663,
      "hon": 1664,
      "kit": 1665,
      "land": 1666,
      "ms": 1667,
      "ming": 1668,
      "mice": 1669,
      "master": 1670,
      "none": 1671,
      "number": 1672,
      "ob": 1673,
      "oc": 1674,
      "pan": 1675,
      "pas": 1676,
      "par": 1677,
      "por": 1678,
      "pur": 1679,
      "patter": 1680,
      "sli": 1681,
      "soup": 1682,
      "since": 1683,
      "tong": 1684,
      "um": 1685,
      "uce": 1686,
      "ude": 1687,
      "vil": 1688,
      "vage": 1689,
      "wow": 1690,
      "wild": 1691,
      "yer": 1692,
      "yaw": 1693,
      "held": 1694,
      "inv": 1695,
      "itude": 1696,
      "ated": 1697,
      "ones": 1698,
      "real": 1699,
      "tom": 1700,
      "thor": 1701,
      "thim": 1702,
      "lle": 1703,
      "lled": 1704,
      "lives": 1705,
      "savage": 1706,
      "arre": 1707,
      "arse": 1708,
      "arches": 1709,
      "orus": 1710,
      "behead": 1711,
      "adri": 1712,
      "adventures": 1713,
      "sts": 1714,
      "stra": 1715,
      "start": 1716,
      "stairs": 1717,
      "wash": 1718,
      "chance": 1719,
      "verse": 1720,
      "verdi": 1721,
      "verses": 1722,
      "hers": 1723,
      "ots": 1724,
      "--\"'": 1725,
      "sobs": 1726,
      "ural": 1727,
      "short": 1728,
      "alone": 1729,
      "esca": 1730,
      "upset": 1731,
      "new": 1732,
      "neat": 1733,
      "tip": 1734,
      "fortun": 1735,
      "rose": 1736,
      "owning": 1737,
      "selves": 1738,
      "noise": 1739,
      "pet": 1740,
      "peep": 1741,
      "fear": 1742,
      "fectly": 1743,
      "immed": 1744,
      "rage": 1745,
      "poise": 1746,
      "dead": 1747,
      "ions": 1748,
      "capit": 1749,
      "chen": 1750,
      "thoughtfully": 1751,
      "otherwise": 1752,
      "quick": 1753,
      "quarre": 1754,
      "expe": 1755,
      "says": 1756,
      "grass": 1757,
      "sic": 1758,
      "concl": 1759,
      "contempt": 1760,
      "cted": 1761,
      "perfectly": 1762,
      "ledge": 1763,
      "hole": 1764,
      "hoarse": 1765,
      "THIS": 1766,
      "earth": 1767,
      "shoulder": 1768,
      "shoulders": 1769,
      "days": 1770,
      "elbow": 1771,
      "fair": 1772,
      "managed": 1773,
      "disa": 1774,
      "rule": 1775,
      "rush": 1776,
      "begins": 1777,
      "taken": 1778,
      "taught": 1779,
      "week": 1780,
      "Nothing": 1781,
      "teen": 1782,
      "teles": 1783,
      "jurymen": 1784,
      "sett": 1785,
      "pale": 1786,
      "paper": 1787,
      "questions": 1788,
      "cross": 1789,
      "letter": 1790,
      "hearing": 1791,
      "Mabel": 1792,
      "HAVE": 1793,
      "suppressed": 1794,
      "ootiful": 1795,
      "wanted": 1796,
      "players": 1797,
      "ING": 1798,
      "bottom": 1799,
      "creature": 1800,
      "tiny": 1801,
      "puzzling": 1802,
      "answered": 1803,
      "mouths": 1804,
      "fallen": 1805,
      "busily": 1806,
      "slate": 1807,
      "beaut": 1808,
      "confused": 1809,
      "Ann": 1810,
      "courage": 1811,
      "passion": 1812,
      "deeply": 1813,
      "AND": 1814,
      "carried": 1815,
      "shore": 1816,
      "jumping": 1817,
      "twinkling": 1818,
      "sharply": 1819,
      "Beau": 1820,
      "bowed": 1821,
      "crowd": 1822,
      "several": 1823,
      "severely": 1824,
      "ordered": 1825,
      "bats": 1826,
      "natural": 1827,
      "reach": 1828,
      "civil": 1829,
      "frowning": 1830,
      "girl": 1831,
      "hung": 1832,
      "solemnly": 1833,
      "possible": 1834,
      "ventured": 1835,
      "violently": 1836,
      "decidedly": 1837,
      "corner": 1838,
      "green": 1839,
      "hours": 1840,
      "second": 1841,
      "ticular": 1842,
      "except": 1843,
      "pictures": 1844,
      "screamed": 1845,
      "difficulty": 1846,
      "animals": 1847,
      "Quadri": 1848,
      "SOME": 1849,
      "crumbs": 1850,
      "vanished": 1851,
      "retched": 1852,
      "shrinking": 1853,
      "pointing": 1854,
      "uncomfortable": 1855,
      "officers": 1856,
      "indignantly": 1857,
      "grunted": 1858,
      "judge": 1859,
      "twelve": 1860,
      "jurors": 1861,
      "French": 1862,
      "breath": 1863,
      "fond": 1864,
      "honour": 1865,
      "kitchen": 1866,
      "passage": 1867,
      "particular": 1868,
      "porpoise": 1869,
      "tongue": 1870,
      "thimble": 1871,
      "straight": 1872,
      "verdict": 1873,
      "escape": 1874,
      "immedi": 1875,
      "capital": 1876,
      "telesco": 1877,
      "Quadrille": 1878,
      "!--": 1879,
      "!\"'": 1880,
      "\"!'": 1881,
      "?\"'": 1882,
      "AVE": 1883,
      "BO": 1884,
      "Ca": 1885,
      "Ch": 1886,
      "DO": 1887,
      "Did": 1888,
      "Down": 1889,
      "Drawling": 1890,
      "ES": 1891,
      "Ed": 1892,
      "Eag": 1893,
      "GH": 1894,
      "Go": 1895,
      "Give": 1896,
      "Have": 1897,
      "Is": 1898,
      "Lat": 1899,
      "Long": 1900,
      "May": 1901,
      "Miss": 1902,
      "MUS": 1903,
      "OF": 1904,
      "Ow": 1905,
      "ORE": 1906,
      "Pr": 1907,
      "Pan": 1908,
      "Per": 1909,
      "Pat": 1910,
      "QU": 1911,
      "RU": 1912,
      "Sup": 1913,
      "Sil": 1914,
      "Serpent": 1915,
      "Ti": 1916,
      "Tor": 1917,
      "Twink": 1918,
      "WO": 1919,
      "Won": 1920,
      "Yet": 1921,
      "act": 1922,
      "ail": 1923,
      "alive": 1924,
      "blow": 1925,
      "bran": 1926,
      "brea": 1927,
      "cand": 1928,
      "cce": 1929,
      "cri": 1930,
      "cting": 1931,
      "cil": 1932,
      "cards": 1933,
      "da": 1934,
      "dri": 1935,
      "dull": 1936,
      "duc": 1937,
      "ech": 1938,
      "eel": 1939,
      "fits": 1940,
      "flo": 1941,
      "fight": 1942,
      "free": 1943,
      "faster": 1944,
      "gi": 1945,
      "gged": 1946,
      "hang": 1947,
      "humb": 1948,
      "ie": 1949,
      "kill": 1950,
      "kers": 1951,
      "kick": 1952,
      "knif": 1953,
      "lat": 1954,
      "ma": 1955,
      "mis": 1956,
      "mist": 1957,
      "miss": 1958,
      "mpet": 1959,
      "ners": 1960,
      "om": 1961,
      "ove": 1962,
      "pin": 1963,
      "pen": 1964,
      "pot": 1965,
      "pain": 1966,
      "pun": 1967,
      "past": 1968,
      "prom": 1969,
      "pity": 1970,
      "rat": 1971,
      "sk": 1972,
      "ser": 1973,
      "smo": 1974,
      "simp": 1975,
      "sense": 1976,
      "tis": 1977,
      "twent": 1978,
      "tumb": 1979,
      "une": 1980,
      "uous": 1981,
      "uff": 1982,
      "vy": 1983,
      "win": 1984,
      "xed": 1985,
      "yest": 1986,
      "anced": 1987,
      "oun": 1988,
      "itted": 1989,
      "ering": 1990,
      "erday": 1991,
      "attempt": 1992,
      "res": 1993,
      "reco": 1994,
      "relie": 1995,
      "respect": 1996,
      "toes": 1997,
      "toise": 1998,
      "tossing": 1999,
      "thand": 2000,
      "ashed": 2001,
      "edn": 2002,
      "eded": 2003,
      "edge": 2004,
      "eng": 2005,
      "encour": 2006,
      "lif": 2007,
      "livery": 2008,
      "lived": 2009,
      "liged": 2010,
      "sad": 2011,
      "legs": 2012,
      "around": 2013,
      "shes": 2014,
      "ising": 2015,
      "beast": 2016,
      "belong": 2017,
      "below": 2018,
      "besides": 2019,
      "mes": 2020,
      "met": 2021,
      "meet": 2022,
      "aded": 2023,
      "addre": 2024,
      "staring": 2025,
      "stuff": 2026,
      "chorus": 2027,
      "utiously": 2028,
      "sobbing": 2029,
      "outside": 2030,
      "oose": 2031,
      "above": 2032,
      "shap": 2033,
      "shaking": 2034,
      "alas": 2035,
      "alarm": 2036,
      "nest": 2037,
      "needn": 2038,
      "forgetting": 2039,
      "dog": 2040,
      "dogs": 2041,
      "notion": 2042,
      "rying": 2043,
      "rog": 2044,
      "roses": 2045,
      "aging": 2046,
      "fect": 2047,
      "impossible": 2048,
      "move": 2049,
      "moving": 2050,
      "suit": 2051,
      "sult": 2052,
      "succe": 2053,
      "music": 2054,
      "posit": 2055,
      "poison": 2056,
      "decl": 2057,
      "ioned": 2058,
      "knowledge": 2059,
      "unimportant": 2060,
      "unfortun": 2061,
      "themselves": 2062,
      "ourn": 2063,
      "caught": 2064,
      "cautiously": 2065,
      "checked": 2066,
      "cheered": 2067,
      "exam": 2068,
      "explan": 2069,
      "extra": 2070,
      "grand": 2071,
      "six": 2072,
      "Turn": 2073,
      "plate": 2074,
      "antage": 2075,
      "twist": 2076,
      "boy": 2077,
      "worse": 2078,
      "pleaded": 2079,
      "lost": 2080,
      "muchness": 2081,
      "howling": 2082,
      "voices": 2083,
      "derland": 2084,
      "oughly": 2085,
      "Duck": 2086,
      "mentioned": 2087,
      "mustard": 2088,
      "THER": 2089,
      "THINK": 2090,
      "picked": 2091,
      "longer": 2092,
      "mark": 2093,
      "handed": 2094,
      "putting": 2095,
      "catch": 2096,
      "cation": 2097,
      "dig": 2098,
      "rules": 2099,
      "Some": 2100,
      "Thank": 2101,
      "speech": 2102,
      "dears": 2103,
      "growl": 2104,
      "tale": 2105,
      "acles": 2106,
      "accid": 2107,
      "accoun": 2108,
      "hurt": 2109,
      "remarking": 2110,
      "pleasant": 2111,
      "turns": 2112,
      "Nobody": 2113,
      "deny": 2114,
      "wrote": 2115,
      "finding": 2116,
      "happy": 2117,
      "sorts": 2118,
      "paw": 2119,
      "proper": 2120,
      "lesson": 2121,
      "crossed": 2122,
      "repeating": 2123,
      "stopped": 2124,
      "watching": 2125,
      "anxious": 2126,
      "prison": 2127,
      "trot": 2128,
      "true": 2129,
      "choked": 2130,
      "footman": 2131,
      "remarks": 2132,
      "smaller": 2133,
      "swallow": 2134,
      "whiskers": 2135,
      "follows": 2136,
      "appear": 2137,
      "ctions": 2138,
      "sounds": 2139,
      "directions": 2140,
      "tails": 2141,
      "joined": 2142,
      "further": 2143,
      "instance": 2144,
      "instead": 2145,
      "grinned": 2146,
      "listening": 2147,
      "Once": 2148,
      "Only": 2149,
      "crown": 2150,
      "crash": 2151,
      "general": 2152,
      "advance": 2153,
      "advantage": 2154,
      "opening": 2155,
      "pieces": 2156,
      "hedgehogs": 2157,
      "carefully": 2158,
      "loudly": 2159,
      "prizes": 2160,
      "spread": 2161,
      "serpents": 2162,
      "ucus": 2163,
      "holding": 2164,
      "brought": 2165,
      "usually": 2166,
      "confusing": 2167,
      "burn": 2168,
      "fron": 2169,
      "girls": 2170,
      "hunting": 2171,
      "miles": 2172,
      "intro": 2173,
      "attending": 2174,
      "possibly": 2175,
      "sighing": 2176,
      "considering": 2177,
      "considered": 2178,
      "effect": 2179,
      "funny": 2180,
      "lady": 2181,
      "nurse": 2182,
      "nursing": 2183,
      "snail": 2184,
      "tasted": 2185,
      "trumpet": 2186,
      "cakes": 2187,
      "hoping": 2188,
      "spectacles": 2189,
      "guessed": 2190,
      "gravely": 2191,
      "Adventures": 2192,
      "Consider": 2193,
      "Exactly": 2194,
      "bringing": 2195,
      "easily": 2196,
      "friend": 2197,
      "figure": 2198,
      "knocking": 2199,
      "muttering": 2200,
      "nibbling": 2201,
      "splash": 2202,
      "tucked": 2203,
      "remained": 2204,
      "sulky": 2205,
      "ALICE": 2206,
      "HIM": 2207,
      "custo": 2208,
      "filled": 2209,
      "guests": 2210,
      "obliged": 2211,
      "pattering": 2212,
      "slipped": 2213,
      "beheaded": 2214,
      "peeped": 2215,
      "expecting": 2216,
      "contemptuous": 2217,
      "disap": 2218,
      "settled": 2219,
      "beautif": 2220,
      "hungry": 2221,
      "immediately": 2222,
      "telescope": 2223,
      "Caucus": 2224,
      "Eaglet": 2225,
      "MUST": 2226,
      "Owl": 2227,
      "Pray": 2228,
      "Panther": 2229,
      "Perhaps": 2230,
      "Silence": 2231,
      "Time": 2232,
      "Tortoise": 2233,
      "Twinkle": 2234,
      "Wonderland": 2235,
      "breathe": 2236,
      "candle": 2237,
      "floor": 2238,
      "hanging": 2239,
      "knife": 2240,
      "later": 2241,
      "mistake": 2242,
      "pencil": 2243,
      "simply": 2244,
      "uneas": 2245,
      "yesterday": 2246,
      "shaped": 2247,
      "succeeded": 2248,
      "unfortunate": 2249,
      "explanation": 2250,
      "accident": 2251,
      "',": 2252,
      ");": 2253,
      ")--": 2254,
      ".--": 2255,
      "?\"": 2256,
      "AD": 2257,
      "AM": 2258,
      "Al": 2259,
      "AID": 2260,
      "ATHER": 2261,
      "Cr": 2262,
      "CHO": 2263,
      "DR": 2264,
      "DY": 2265,
      "DER": 2266,
      "Dig": 2267,
      "ED": 2268,
      "ET": 2269,
      "EVER": 2270,
      "FU": 2271,
      "Fur": 2272,
      "Found": 2273,
      "Fish": 2274,
      "FIT": 2275,
      "Father": 2276,
      "FATHER": 2277,
      "Get": 2278,
      "GAVE": 2279,
      "Hush": 2280,
      "IF": 2281,
      "I_": 2282,
      "Im": 2283,
      "IAM": 2284,
      "Ke": 2285,
      "Last": 2286,
      "LIT": 2287,
      "MI": 2288,
      "Mer": 2289,
      "Mor": 2290,
      "Mind": 2291,
      "MIN": 2292,
      "MORE": 2293,
      "NT": 2294,
      "Nex": 2295,
      "Nimportant": 2296,
      "OVE": 2297,
      "OLD": 2298,
      "Pe": 2299,
      "Po": 2300,
      "Pen": 2301,
      "Par": 2302,
      "Pri": 2303,
      "Pig": 2304,
      "PLE": 2305,
      "Pres": 2306,
      "Ro": 2307,
      "RUS": 2308,
      "SE": 2309,
      "ST": 2310,
      "Se": 2311,
      "St": 2312,
      "Su": 2313,
      "Sto": 2314,
      "Spe": 2315,
      "Shall": 2316,
      "SAID": 2317,
      "Tre": 2318,
      "Tis": 2319,
      "TLE": 2320,
      "TWO": 2321,
      "UR": 2322,
      "Ug": 2323,
      "Up": 2324,
      "Ugh": 2325,
      "UNimportant": 2326,
      "VII": 2327,
      "Wr": 2328,
      "Wow": 2329,
      "Wake": 2330,
      "Your": 2331,
      "_I_": 2332,
      "`'": 2333,
      "aked": 2334,
      "aws": 2335,
      "avy": 2336,
      "bl": 2337,
      "bre": 2338,
      "bar": 2339,
      "bis": 2340,
      "bad": 2341,
      "bite": 2342,
      "bour": 2343,
      "bend": 2344,
      "blast": 2345,
      "bble": 2346,
      "bark": 2347,
      "beds": 2348,
      "barrow": 2349,
      "brush": 2350,
      "cing": 2351,
      "cas": 2352,
      "cir": 2353,
      "cra": 2354,
      "cart": 2355,
      "cool": 2356,
      "cuc": 2357,
      "cush": 2358,
      "dr": 2359,
      "dan": 2360,
      "ding": 2361,
      "dles": 2362,
      "drun": 2363,
      "duce": 2364,
      "ew": 2365,
      "ele": 2366,
      "fer": 2367,
      "fain": 2368,
      "fif": 2369,
      "fra": 2370,
      "fam": 2371,
      "farm": 2372,
      "fash": 2373,
      "foun": 2374,
      "frog": 2375,
      "gid": 2376,
      "gular": 2377,
      "goose": 2378,
      "hit": 2379,
      "hat": 2380,
      "hatter": 2381,
      "hate": 2382,
      "hint": 2383,
      "isa": 2384,
      "igh": 2385,
      "ief": 2386,
      "jar": 2387,
      "jaws": 2388,
      "ks": 2389,
      "knot": 2390,
      "kily": 2391,
      "kiss": 2392,
      "lid": 2393,
      "lone": 2394,
      "lves": 2395,
      "line": 2396,
      "mur": 2397,
      "mil": 2398,
      "mmer": 2399,
      "mitted": 2400,
      "mourn": 2401,
      "nor": 2402,
      "nam": 2403,
      "narrow": 2404,
      "ogra": 2405,
      "pat": 2406,
      "ping": 2407,
      "pid": 2408,
      "parch": 2409,
      "pence": 2410,
      "pull": 2411,
      "patiently": 2412,
      "ron": 2413,
      "rance": 2414,
      "ratt": 2415,
      "sand": 2416,
      "sed": 2417,
      "sen": 2418,
      "sof": 2419,
      "sca": 2420,
      "sang": 2421,
      "scro": 2422,
      "snat": 2423,
      "sending": 2424,
      "tou": 2425,
      "tly": 2426,
      "tall": 2427,
      "tab": 2428,
      "treat": 2429,
      "treading": 2430,
      "tones": 2431,
      "uld": 2432,
      "ugh": 2433,
      "uded": 2434,
      "ump": 2435,
      "var": 2436,
      "vour": 2437,
      "wag": 2438,
      "wet": 2439,
      "wea": 2440,
      "wig": 2441,
      "wine": 2442,
      "wide": 2443,
      "wretched": 2444,
      "ys": 2445,
      "yal": 2446,
      "year": 2447,
      "zy": 2448,
      "zing": 2449,
      "zed": 2450,
      "heart": 2451,
      "heavy": 2452,
      "ining": 2453,
      "invent": 2454,
      "aning": 2455,
      "anno": 2456,
      "oured": 2457,
      "itation": 2458,
      "itated": 2459,
      "itions": 2460,
      "eror": 2461,
      "erable": 2462,
      "atom": 2463,
      "ings": 2464,
      "ref": 2465,
      "rew": 2466,
      "rets": 2467,
      "removed": 2468,
      "regular": 2469,
      "toe": 2470,
      "thro": 2471,
      "thous": 2472,
      "thumb": 2473,
      "thump": 2474,
      "threw": 2475,
      "asse": 2476,
      "asha": 2477,
      "editions": 2478,
      "lling": 2479,
      "llent": 2480,
      "llect": 2481,
      "cei": 2482,
      "sell": 2483,
      "living": 2484,
      "lifi": 2485,
      "sal": 2486,
      "safe": 2487,
      "salt": 2488,
      "sault": 2489,
      "sauce": 2490,
      "lead": 2491,
      "legged": 2492,
      "leaning": 2493,
      "orter": 2494,
      "ordin": 2495,
      "ornam": 2496,
      "shelves": 2497,
      "isit": 2498,
      "bear": 2499,
      "became": 2500,
      "mely": 2501,
      "memor": 2502,
      "meek": 2503,
      "ster": 2504,
      "sting": 2505,
      "stir": 2506,
      "stam": 2507,
      "stant": 2508,
      "step": 2509,
      "stru": 2510,
      "stery": 2511,
      "stretched": 2512,
      "wasting": 2513,
      "char": 2514,
      "chain": 2515,
      "chief": 2516,
      "vered": 2517,
      "otic": 2518,
      "somer": 2519,
      "ented": 2520,
      "entang": 2521,
      "entire": 2522,
      "ges": 2523,
      "absur": 2524,
      "tles": 2525,
      "tered": 2526,
      "terri": 2527,
      "within": 2528,
      "shill": 2529,
      "shorter": 2530,
      "also": 2531,
      "already": 2532,
      "ria": 2533,
      "These": 2534,
      "neither": 2535,
      "neigh": 2536,
      "ties": 2537,
      "tiers": 2538,
      "forget": 2539,
      "doth": 2540,
      "note": 2541,
      "nowhere": 2542,
      "rolled": 2543,
      "roots": 2544,
      "royal": 2545,
      "ago": 2546,
      "agree": 2547,
      "agine": 2548,
      "peared": 2549,
      "pebble": 2550,
      "feather": 2551,
      "iment": 2552,
      "thistle": 2553,
      "moder": 2554,
      "sun": 2555,
      "sugar": 2556,
      "summer": 2557,
      "mus": 2558,
      "raven": 2559,
      "rail": 2560,
      "raving": 2561,
      "raised": 2562,
      "rapid": 2563,
      "ounds": 2564,
      "knows": 2565,
      "knowing": 2566,
      "whatever": 2567,
      "uncom": 2568,
      "unless": 2569,
      "unfolded": 2570,
      "unpleasant": 2571,
      "unhappy": 2572,
      "unrolled": 2573,
      "caused": 2574,
      "cauld": 2575,
      "thoughts": 2576,
      "offer": 2577,
      "somewhere": 2578,
      "coax": 2579,
      "collect": 2580,
      "queror": 2581,
      "using": 2582,
      "usion": 2583,
      "exper": 2584,
      "extre": 2585,
      "expre": 2586,
      "yours": 2587,
      "concer": 2588,
      "constant": 2589,
      "whose": 2590,
      "plates": 2591,
      "phy": 2592,
      "phantly": 2593,
      "boards": 2594,
      "boots": 2595,
      "linging": 2596,
      "bye": 2597,
      "mbling": 2598,
      "mbled": 2599,
      "ured": 2600,
      "courtiers": 2601,
      "turtles": 2602,
      "earls": 2603,
      "earnest": 2604,
      "forehead": 2605,
      "picking": 2606,
      "useful": 2607,
      "longed": 2608,
      "archbis": 2609,
      "OUR": 2610,
      "afterwards": 2611,
      "els": 2612,
      "father": 2613,
      "manner": 2614,
      "curled": 2615,
      "curred": 2616,
      "lasted": 2617,
      "pute": 2618,
      "catching": 2619,
      "dipped": 2620,
      "dishes": 2621,
      "rust": 2622,
      "rude": 2623,
      "rubbing": 2624,
      "anger": 2625,
      "comes": 2626,
      "doors": 2627,
      "ully": 2628,
      "lap": 2629,
      "law": 2630,
      "laid": 2631,
      "laug": 2632,
      "label": 2633,
      "laugh": 2634,
      "tells": 2635,
      "telling": 2636,
      "undo": 2637,
      "unders": 2638,
      "Does": 2639,
      "pleasure": 2640,
      "wonderful": 2641,
      "waist": 2642,
      "complain": 2643,
      "comfits": 2644,
      "denied": 2645,
      "sooner": 2646,
      "undertone": 2647,
      "isted": 2648,
      "istling": 2649,
      "blew": 2650,
      "hasn": 2651,
      "older": 2652,
      "ively": 2653,
      "pause": 2654,
      "prove": 2655,
      "proved": 2656,
      "produc": 2657,
      "croque": 2658,
      "fine": 2659,
      "spoon": 2660,
      "tains": 2661,
      "takes": 2662,
      "lets": 2663,
      "watched": 2664,
      "clam": 2665,
      "closed": 2666,
      "flat": 2667,
      "lefthand": 2668,
      "learning": 2669,
      "mostly": 2670,
      "wherever": 2671,
      "proud": 2672,
      "ringlets": 2673,
      "trick": 2674,
      "trium": 2675,
      "wants": 2676,
      "chose": 2677,
      "choice": 2678,
      "changes": 2679,
      "footstep": 2680,
      "playing": 2681,
      "remarkable": 2682,
      "smallest": 2683,
      "ITE": 2684,
      "singing": 2685,
      "singers": 2686,
      "THEY": 2687,
      "books": 2688,
      "falling": 2689,
      "feeble": 2690,
      "hurriedly": 2691,
      "bbed": 2692,
      "bird": 2693,
      "minding": 2694,
      "names": 2695,
      "resting": 2696,
      "directly": 2697,
      "directed": 2698,
      "interrupting": 2699,
      "HEAR": 2700,
      "couple": 2701,
      "furrow": 2702,
      "matters": 2703,
      "keeping": 2704,
      "shouting": 2705,
      "places": 2706,
      "executions": 2707,
      "sisters": 2708,
      "sneeze": 2709,
      "brightened": 2710,
      "carrying": 2711,
      "cupboards": 2712,
      "distant": 2713,
      "persisted": 2714,
      "stoop": 2715,
      "umbled": 2716,
      "woman": 2717,
      "advisa": 2718,
      "changing": 2719,
      "signed": 2720,
      "signif": 2721,
      "fancied": 2722,
      "learnt": 2723,
      "broke": 2724,
      "cares": 2725,
      "claws": 2726,
      "kindly": 2727,
      "ughter": 2728,
      "ordering": 2729,
      "goldfish": 2730,
      "lobster": 2731,
      "trembled": 2732,
      "feelings": 2733,
      "sneezes": 2734,
      "NEVER": 2735,
      "brown": 2736,
      "dreadful": 2737,
      "nicely": 2738,
      "proceed": 2739,
      "doubtful": 2740,
      "doubtfully": 2741,
      "cia": 2742,
      "mile": 2743,
      "mixed": 2744,
      "merely": 2745,
      "intment": 2746,
      "sages": 2747,
      "shower": 2748,
      "showing": 2749,
      "shutting": 2750,
      "delighted": 2751,
      "delightful": 2752,
      "tempered": 2753,
      "violent": 2754,
      "flamingoes": 2755,
      "BEST": 2756,
      "desper": 2757,
      "riddles": 2758,
      "taste": 2759,
      "truth": 2760,
      "ugly": 2761,
      "uglif": 2762,
      "secondly": 2763,
      "beating": 2764,
      "excellent": 2765,
      "presents": 2766,
      "smile": 2767,
      "smiling": 2768,
      "smiled": 2769,
      "personal": 2770,
      "Conqueror": 2771,
      "Explain": 2772,
      "Mystery": 2773,
      "Really": 2774,
      "apples": 2775,
      "clever": 2776,
      "crying": 2777,
      "dinner": 2778,
      "dispute": 2779,
      "easy": 2780,
      "friends": 2781,
      "locks": 2782,
      "month": 2783,
      "muttered": 2784,
      "nyworth": 2785,
      "nibbled": 2786,
      "squee": 2787,
      "squeaking": 2788,
      "uckily": 2789,
      "wandered": 2790,
      "wandering": 2791,
      "throwing": 2792,
      "sulkily": 2793,
      "lovely": 2794,
      "teacups": 2795,
      "swimming": 2796,
      "WILLIAM": 2797,
      "sorrowful": 2798,
      "Everything": 2799,
      "Everybody": 2800,
      "HERE": 2801,
      "IDE": 2802,
      "Northumb": 2803,
      "author": 2804,
      "flower": 2805,
      "flowers": 2806,
      "mson": 2807,
      "occas": 2808,
      "occurred": 2809,
      "panting": 2810,
      "purring": 2811,
      "wildly": 2812,
      "yawning": 2813,
      "yawned": 2814,
      "invited": 2815,
      "invitation": 2816,
      "thoroughly": 2817,
      "started": 2818,
      "startled": 2819,
      "washing": 2820,
      "neatly": 2821,
      "tiptoe": 2822,
      "quickly": 2823,
      "quarrelling": 2824,
      "concluded": 2825,
      "conclusion": 2826,
      "teenth": 2827,
      "BODY": 2828,
      "Edwin": 2829,
      "Latitude": 2830,
      "Longitude": 2831,
      "QUITE": 2832,
      "Suppose": 2833,
      "branches": 2834,
      "crimson": 2835,
      "dais": 2836,
      "giving": 2837,
      "humbly": 2838,
      "miserable": 2839,
      "missed": 2840,
      "pinched": 2841,
      "painting": 2842,
      "smoking": 2843,
      "twenty": 2844,
      "tumbling": 2845,
      "recovered": 2846,
      "relief": 2847,
      "encouraging": 2848,
      "beasts": 2849,
      "belongs": 2850,
      "messages": 2851,
      "addressed": 2852,
      "position": 2853,
      "declare": 2854,
      "examine": 2855,
      "extraordin": 2856,
      "digging": 2857,
      "prisoner": 2858,
      "trotting": 2859,
      "front": 2860,
      "introduce": 2861,
      "splashing": 2862,
      "custody": 2863,
      "contemptuously": 2864,
      "disappeared": 2865,
      "beautifully": 2866,
      "uneasily": 2867,
      "Crab": 2868,
      "CHORUS": 2869,
      "DRINK": 2870,
      "Digging": 2871,
      "FUL": 2872,
      "Fury": 2873,
      "Keep": 2874,
      "LITTLE": 2875,
      "Mercia": 2876,
      "Morcar": 2877,
      "MINE": 2878,
      "Next": 2879,
      "Pepper": 2880,
      "Poor": 2881,
      "Pennyworth": 2882,
      "Paris": 2883,
      "Prizes": 2884,
      "Presently": 2885,
      "Rome": 2886,
      "Speak": 2887,
      "Treacle": 2888,
      "Uglifi": 2889,
      "break": 2890,
      "blasts": 2891,
      "barrowful": 2892,
      "cucumber": 2893,
      "cushion": 2894,
      "dancing": 2895,
      "drunk": 2896,
      "ferrets": 2897,
      "fashion": 2898,
      "fountains": 2899,
      "giddy": 2900,
      "lonely": 2901,
      "murder": 2902,
      "milk": 2903,
      "ography": 2904,
      "parchment": 2905,
      "rattling": 2906,
      "sensation": 2907,
      "scroll": 2908,
      "snatch": 2909,
      "taller": 2910,
      "tably": 2911,
      "weak": 2912,
      "annoy": 2913,
      "throat": 2914,
      "thousand": 2915,
      "assembled": 2916,
      "ashamed": 2917,
      "ornamented": 2918,
      "meekly": 2919,
      "stirring": 2920,
      "stamping": 2921,
      "struck": 2922,
      "somersault": 2923,
      "entangled": 2924,
      "entirely": 2925,
      "absurd": 2926,
      "neighbour": 2927,
      "pebbles": 2928,
      "railway": 2929,
      "rapidly": 2930,
      "cauldron": 2931,
      "coaxing": 2932,
      "collected": 2933,
      "experiment": 2934,
      "extremely": 2935,
      "concert": 2936,
      "earnestly": 2937,
      "archbishop": 2938,
      "laughed": 2939,
      "triumphantly": 2940,
      "footsteps": 2941,
      "advisable": 2942,
      "uglify": 2943,
      "Northumbria": 2944,
      "authority": 2945,
      "occasion": 2946,
      "extraordinary": 2947,
      "Uglification": 2948,
      "\"?'": 2949,
      "')": 2950,
      "):": 2951,
      "):--": 2952,
      ")--`": 2953,
      ".]": 2954,
      ".--`": 2955,
      "?)": 2956,
      "AB": 2957,
      "Am": 2958,
      "Ar": 2959,
      "Ahe": 2960,
      "Athe": 2961,
      "Allow": 2962,
      "AIS": 2963,
      "Aust": 2964,
      "Br": 2965,
      "Bes": 2966,
      "Bir": 2967,
      "Bet": 2968,
      "Back": 2969,
      "Boot": 2970,
      "Bring": 2971,
      "BIT": 2972,
      "Beg": 2973,
      "BUS": 2974,
      "CH": 2975,
      "CI": 2976,
      "CK": 2977,
      "CO": 2978,
      "Cl": 2979,
      "Cer": 2980,
      "Car": 2981,
      "Cur": 2982,
      "Cro": 2983,
      "CRU": 2984,
      "CUR": 2985,
      "COUR": 2986,
      "Der": 2987,
      "Dri": 2988,
      "Dear": 2989,
      "Dist": 2990,
      "Drink": 2991,
      "EY": 2992,
      "Ea": 2993,
      "El": 2994,
      "En": 2995,
      "Even": 2996,
      "EAT": 2997,
      "EVERY": 2998,
      "EVE": 2999,
      "Either": 3000,
      "Evid": 3001,
      "EEN": 3002,
      "FO": 3003,
      "FR": 3004,
      "Fain": 3005,
      "Fif": 3006,
      "Four": 3007,
      "Fet": 3008,
      "Fort": 3009,
      "From": 3010,
      "FEN": 3011,
      "FORE": 3012,
      "Frog": 3013,
      "France": 3014,
      "GE": 3015,
      "GG": 3016,
      "Ge": 3017,
      "Gri": 3018,
      "Gra": 3019,
      "Ground": 3020,
      "Good": 3021,
      "Game": 3022,
      "Hj": 3023,
      "Hm": 3024,
      "Ho": 3025,
      "Hand": 3026,
      "Has": 3027,
      "His": 3028,
      "Had": 3029,
      "Him": 3030,
      "Hard": 3031,
      "Half": 3032,
      "HIS": 3033,
      "HING": 3034,
      "IO": 3035,
      "IR": 3036,
      "IU": 3037,
      "IV": 3038,
      "IX": 3039,
      "Ind": 3040,
      "Idi": 3041,
      "IGH": 3042,
      "Jack": 3043,
      "KNO": 3044,
      "KING": 3045,
      "LF": 3046,
      "LU": 3047,
      "Lit": 3048,
      "Lon": 3049,
      "Look": 3050,
      "Lea": 3051,
      "Lac": 3052,
      "Lau": 3053,
      "LAND": 3054,
      "LOVE": 3055,
      "Lew": 3056,
      "Luckily": 3057,
      "MY": 3058,
      "Mad": 3059,
      "Mag": 3060,
      "Mul": 3061,
      "Mine": 3062,
      "MAR": 3063,
      "MAL": 3064,
      "NS": 3065,
      "Ni": 3066,
      "Nay": 3067,
      "Near": 3068,
      "Number": 3069,
      "Nonsense": 3070,
      "NDER": 3071,
      "New": 3072,
      "NIU": 3073,
      "OK": 3074,
      "OM": 3075,
      "OR": 3076,
      "OT": 3077,
      "Or": 3078,
      "Ou": 3079,
      "Our": 3080,
      "OICE": 3081,
      "OTS": 3082,
      "OCK": 3083,
      "PR": 3084,
      "Pu": 3085,
      "Pin": 3086,
      "PER": 3087,
      "Part": 3088,
      "Pool": 3089,
      "PRE": 3090,
      "POCK": 3091,
      "Ru": 3092,
      "Run": 3093,
      "Right": 3094,
      "ROU": 3095,
      "Race": 3096,
      "RAB": 3097,
      "RIGH": 3098,
      "SS": 3099,
      "Si": 3100,
      "Sw": 3101,
      "Sit": 3102,
      "Sing": 3103,
      "Sent": 3104,
      "Sir": 3105,
      "Sti": 3106,
      "Sha": 3107,
      "Sea": 3108,
      "SOU": 3109,
      "Same": 3110,
      "Stre": 3111,
      "Still": 3112,
      "SIT": 3113,
      "Stop": 3114,
      "Story": 3115,
      "SWI": 3116,
      "Stu": 3117,
      "Sends": 3118,
      "SHO": 3119,
      "Sounds": 3120,
      "SIDE": 3121,
      "SLU": 3122,
      "Ta": 3123,
      "To": 3124,
      "Ten": 3125,
      "Tut": 3126,
      "Too": 3127,
      "Tal": 3128,
      "Tri": 3129,
      "Till": 3130,
      "Twent": 3131,
      "Tea": 3132,
      "Tho": 3133,
      "Table": 3134,
      "Tears": 3135,
      "TIS": 3136,
      "Tarts": 3137,
      "TRU": 3138,
      "TUR": 3139,
      "TCO": 3140,
      "URE": 3141,
      "VI": 3142,
      "Visit": 3143,
      "VOICE": 3144,
      "WE": 3145,
      "Wa": 3146,
      "Was": 3147,
      "WAT": 3148,
      "WHERE": 3149,
      "WAIS": 3150,
      "XI": 3151,
      "XII": 3152,
      "YET": 3153,
      "Ze": 3154,
      "`\"--": 3155,
      "ald": 3156,
      "ape": 3157,
      "ache": 3158,
      "avo": 3159,
      "afore": 3160,
      "aving": 3161,
      "azing": 3162,
      "amus": 3163,
      "ban": 3164,
      "bed": 3165,
      "ball": 3166,
      "bent": 3167,
      "bal": 3168,
      "bone": 3169,
      "bag": 3170,
      "bill": 3171,
      "bra": 3172,
      "bound": 3173,
      "bother": 3174,
      "bough": 3175,
      "bree": 3176,
      "bla": 3177,
      "baw": 3178,
      "blad": 3179,
      "bones": 3180,
      "baked": 3181,
      "cli": 3182,
      "cow": 3183,
      "cher": 3184,
      "cent": 3185,
      "cal": 3186,
      "card": 3187,
      "cun": 3188,
      "cong": 3189,
      "crep": 3190,
      "craw": 3191,
      "cust": 3192,
      "cular": 3193,
      "crawling": 3194,
      "cum": 3195,
      "clinging": 3196,
      "dd": 3197,
      "du": 3198,
      "dain": 3199,
      "dun": 3200,
      "dried": 3201,
      "dded": 3202,
      "dates": 3203,
      "dued": 3204,
      "ddle": 3205,
      "dged": 3206,
      "dging": 3207,
      "duck": 3208,
      "eh": 3209,
      "eth": 3210,
      "eed": 3211,
      "eld": 3212,
      "epe": 3213,
      "eam": 3214,
      "eked": 3215,
      "eling": 3216,
      "fit": 3217,
      "fat": 3218,
      "fth": 3219,
      "fid": 3220,
      "fle": 3221,
      "fad": 3222,
      "foo": 3223,
      "five": 3224,
      "ffee": 3225,
      "flying": 3226,
      "fitted": 3227,
      "frying": 3228,
      "flinging": 3229,
      "fumbled": 3230,
      "gg": 3231,
      "gn": 3232,
      "gand": 3233,
      "gth": 3234,
      "gher": 3235,
      "gall": 3236,
      "gay": 3237,
      "gain": 3238,
      "gant": 3239,
      "gled": 3240,
      "gree": 3241,
      "glar": 3242,
      "gather": 3243,
      "gazing": 3244,
      "hing": 3245,
      "hid": 3246,
      "hor": 3247,
      "hone": 3248,
      "hast": 3249,
      "hood": 3250,
      "hund": 3251,
      "harm": 3252,
      "hig": 3253,
      "hide": 3254,
      "hush": 3255,
      "ili": 3256,
      "iver": 3257,
      "ial": 3258,
      "iation": 3259,
      "icted": 3260,
      "iotic": 3261,
      "jell": 3262,
      "jour": 3263,
      "jaw": 3264,
      "journ": 3265,
      "kn": 3266,
      "ker": 3267,
      "lin": 3268,
      "lou": 3269,
      "len": 3270,
      "lve": 3271,
      "link": 3272,
      "lam": 3273,
      "lous": 3274,
      "lang": 3275,
      "lence": 3276,
      "lull": 3277,
      "lved": 3278,
      "lately": 3279,
      "leng": 3280,
      "loose": 3281,
      "luckily": 3282,
      "mas": 3283,
      "mly": 3284,
      "mall": 3285,
      "mot": 3286,
      "mag": 3287,
      "mpl": 3288,
      "mous": 3289,
      "monly": 3290,
      "mmar": 3291,
      "mense": 3292,
      "maid": 3293,
      "nly": 3294,
      "nast": 3295,
      "nately": 3296,
      "oy": 3297,
      "obe": 3298,
      "othing": 3299,
      "ointment": 3300,
      "odd": 3301,
      "ped": 3302,
      "pow": 3303,
      "pher": 3304,
      "pes": 3305,
      "pra": 3306,
      "ppo": 3307,
      "pite": 3308,
      "pink": 3309,
      "pour": 3310,
      "pany": 3311,
      "pant": 3312,
      "pine": 3313,
      "pans": 3314,
      "pation": 3315,
      "pati": 3316,
      "pends": 3317,
      "poured": 3318,
      "pounds": 3319,
      "rh": 3320,
      "rm": 3321,
      "ror": 3322,
      "rus": 3323,
      "rant": 3324,
      "rang": 3325,
      "rist": 3326,
      "rising": 3327,
      "roughly": 3328,
      "ritated": 3329,
      "rrh": 3330,
      "son": 3331,
      "sue": 3332,
      "site": 3333,
      "sink": 3334,
      "sour": 3335,
      "sco": 3336,
      "sits": 3337,
      "send": 3338,
      "sence": 3339,
      "swe": 3340,
      "scr": 3341,
      "slight": 3342,
      "scra": 3343,
      "ty": 3344,
      "tit": 3345,
      "ton": 3346,
      "tid": 3347,
      "tse": 3348,
      "tut": 3349,
      "tent": 3350,
      "tink": 3351,
      "ture": 3352,
      "tart": 3353,
      "tons": 3354,
      "tching": 3355,
      "tide": 3356,
      "uid": 3357,
      "ucat": 3358,
      "ually": 3359,
      "ucer": 3360,
      "ubs": 3361,
      "vas": 3362,
      "vag": 3363,
      "vice": 3364,
      "vul": 3365,
      "vine": 3366,
      "vote": 3367,
      "voured": 3368,
      "wid": 3369,
      "war": 3370,
      "wri": 3371,
      "wif": 3372,
      "ward": 3373,
      "wra": 3374,
      "wep": 3375,
      "wear": 3376,
      "wel": 3377,
      "winter": 3378,
      "wings": 3379,
      "ye": 3380,
      "yly": 3381,
      "yes": 3382,
      "ything": 3383,
      "yard": 3384,
      "yell": 3385,
      "yel": 3386,
      "years": 3387,
      "yards": 3388,
      "zag": 3389,
      "zig": 3390,
      "zily": 3391,
      "hest": 3392,
      "heap": 3393,
      "hearts": 3394,
      "heels": 3395,
      "theless": 3396,
      "iny": 3397,
      "ined": 3398,
      "inso": 3399,
      "inion": 3400,
      "inqu": 3401,
      "inju": 3402,
      "inted": 3403,
      "inside": 3404,
      "incl": 3405,
      "inqui": 3406,
      "inwards": 3407,
      "insult": 3408,
      "anter": 3409,
      "anci": 3410,
      "ouched": 3411,
      "eral": 3412,
      "erved": 3413,
      "erfully": 3414,
      "ath": 3415,
      "atte": 3416,
      "athi": 3417,
      "atching": 3418,
      "ony": 3419,
      "onds": 3420,
      "onions": 3421,
      "onoun": 3422,
      "ingle": 3423,
      "ingly": 3424,
      "resh": 3425,
      "reti": 3426,
      "returned": 3427,
      "returning": 3428,
      "remed": 3429,
      "reeds": 3430,
      "rearing": 3431,
      "result": 3432,
      "recei": 3433,
      "reminding": 3434,
      "tori": 3435,
      "toss": 3436,
      "toast": 3437,
      "today": 3438,
      "tops": 3439,
      "tomor": 3440,
      "towards": 3441,
      "toys": 3442,
      "toffee": 3443,
      "torm": 3444,
      "andy": 3445,
      "andum": 3446,
      "thin": 3447,
      "thir": 3448,
      "thday": 3449,
      "thunder": 3450,
      "thick": 3451,
      "thunders": 3452,
      "asis": 3453,
      "ases": 3454,
      "asure": 3455,
      "aside": 3456,
      "assic": 3457,
      "asped": 3458,
      "educat": 3459,
      "ening": 3460,
      "enor": 3461,
      "endid": 3462,
      "enjo": 3463,
      "engra": 3464,
      "enced": 3465,
      "encourage": 3466,
      "ids": 3467,
      "ides": 3468,
      "idiotic": 3469,
      "lls": 3470,
      "llar": 3471,
      "cept": 3472,
      "ceful": 3473,
      "seld": 3474,
      "seven": 3475,
      "search": 3476,
      "secut": 3477,
      "secre": 3478,
      "seated": 3479,
      "seaside": 3480,
      "lia": 3481,
      "lip": 3482,
      "lis": 3483,
      "liest": 3484,
      "lips": 3485,
      "licking": 3486,
      "limbs": 3487,
      "ligently": 3488,
      "lication": 3489,
      "save": 3490,
      "saves": 3491,
      "saucer": 3492,
      "salis": 3493,
      "ley": 3494,
      "lest": 3495,
      "leant": 3496,
      "leap": 3497,
      "leaving": 3498,
      "arly": 3499,
      "arri": 3500,
      "arru": 3501,
      "argue": 3502,
      "arrang": 3503,
      "orting": 3504,
      "orant": 3505,
      "sheep": 3506,
      "shepher": 3507,
      "ision": 3508,
      "belo": 3509,
      "belt": 3510,
      "beak": 3511,
      "becoming": 3512,
      "belled": 3513,
      "bells": 3514,
      "meat": 3515,
      "meal": 3516,
      "metic": 3517,
      "measure": 3518,
      "ade": 3519,
      "ads": 3520,
      "ades": 3521,
      "adop": 3522,
      "adding": 3523,
      "adicted": 3524,
      "adjourn": 3525,
      "star": 3526,
      "stal": 3527,
      "state": 3528,
      "stance": 3529,
      "stiff": 3530,
      "string": 3531,
      "stren": 3532,
      "station": 3533,
      "stret": 3534,
      "stead": 3535,
      "steam": 3536,
      "waste": 3537,
      "choo": 3538,
      "chry": 3539,
      "chair": 3540,
      "chop": 3541,
      "chuck": 3542,
      "chanced": 3543,
      "chatte": 3544,
      "lding": 3545,
      "ldly": 3546,
      "ghing": 3547,
      "ghthand": 3548,
      "!')": 3549,
      "thatched": 3550,
      "whistling": 3551,
      "--(": 3552,
      "--]": 3553,
      "sob": 3554,
      "solid": 3555,
      "sobbed": 3556,
      "soothing": 3557,
      "urry": 3558,
      "urried": 3559,
      "urpation": 3560,
      "veget": 3561,
      "velve": 3562,
      "enty": 3563,
      "entrance": 3564,
      "kespe": 3565,
      "wits": 3566,
      "getic": 3567,
      "abide": 3568,
      "absence": 3569,
      "terbur": 3570,
      "terms": 3571,
      "ternately": 3572,
      "terror": 3573,
      "shif": 3574,
      "share": 3575,
      "shake": 3576,
      "shock": 3577,
      "shared": 3578,
      "shining": 3579,
      "shape": 3580,
      "shiver": 3581,
      "shyly": 3582,
      "shiny": 3583,
      "shingle": 3584,
      "shade": 3585,
      "als": 3586,
      "aland": 3587,
      "aled": 3588,
      "altered": 3589,
      "alternately": 3590,
      "rier": 3591,
      "rise": 3592,
      "rich": 3593,
      "ripp": 3594,
      "riper": 3595,
      "rises": 3596,
      "riotic": 3597,
      "righthand": 3598,
      ".')": 3599,
      "upright": 3600,
      "upstairs": 3601,
      "Their": 3602,
      "oneself": 3603,
      "irt": 3604,
      "irons": 3605,
      "irited": 3606,
      "irritated": 3607,
      "nel": 3608,
      "news": 3609,
      "needs": 3610,
      "tie": 3611,
      "tier": 3612,
      "tion": 3613,
      "tied": 3614,
      "tight": 3615,
      "tipped": 3616,
      "ckled": 3617,
      "ckrrh": 3618,
      "ford": 3619,
      "fork": 3620,
      "form": 3621,
      "forwards": 3622,
      "?',": 3623,
      "doze": 3624,
      "dozing": 3625,
      "dodged": 3626,
      "buttons": 3627,
      "roll": 3628,
      "rock": 3629,
      "rope": 3630,
      "roast": 3631,
      "roset": 3632,
      "roared": 3633,
      "rocket": 3634,
      "owned": 3635,
      "aggled": 3636,
      "agony": 3637,
      "nodded": 3638,
      "hiss": 3639,
      "histori": 3640,
      "pegs": 3641,
      "peering": 3642,
      "feared": 3643,
      "fection": 3644,
      "imper": 3645,
      "imming": 3646,
      "imitated": 3647,
      "imagine": 3648,
      "immense": 3649,
      "moon": 3650,
      "momile": 3651,
      "muddle": 3652,
      "mulous": 3653,
      "ssantly": 3654,
      "seeing": 3655,
      "rapped": 3656,
      "raction": 3657,
      "raising": 3658,
      "ralia": 3659,
      "begged": 3660,
      "pop": 3661,
      "pope": 3662,
      "poky": 3663,
      "posal": 3664,
      "pointment": 3665,
      "poker": 3666,
      "posite": 3667,
      "demn": 3668,
      "delay": 3669,
      "deepe": 3670,
      "depends": 3671,
      "death": 3672,
      "downwards": 3673,
      "downward": 3674,
      "weren": 3675,
      "whenever": 3676,
      "wheels": 3677,
      "known": 3678,
      "ung": 3679,
      "unjust": 3680,
      "unable": 3681,
      "unwill": 3682,
      "uncor": 3683,
      "unlock": 3684,
      "uncivil": 3685,
      "untwist": 3686,
      "unusually": 3687,
      "inking": 3688,
      "inkstand": 3689,
      "ource": 3690,
      "ourselves": 3691,
      "likes": 3692,
      "caper": 3693,
      "cackled": 3694,
      "camomile": 3695,
      "cheap": 3696,
      "cheek": 3697,
      "cheated": 3698,
      "cheerfully": 3699,
      "someone": 3700,
      "somehow": 3701,
      "coat": 3702,
      "cost": 3703,
      "cold": 3704,
      "coast": 3705,
      "codi": 3706,
      "amonds": 3707,
      "folding": 3708,
      "Queens": 3709,
      "geted": 3710,
      "ets": 3711,
      "usurpation": 3712,
      "anywhere": 3713,
      "exist": 3714,
      "extr": 3715,
      "exts": 3716,
      "exact": 3717,
      "exclam": 3718,
      "bitter": 3719,
      "bition": 3720,
      "grant": 3721,
      "grumbled": 3722,
      "ppers": 3723,
      "sie": 3724,
      "sizes": 3725,
      "conquest": 3726,
      "consent": 3727,
      "contr": 3728,
      "consult": 3729,
      "condu": 3730,
      "content": 3731,
      "condemn": 3732,
      "jug": 3733,
      "whom": 3734,
      "Kings": 3735,
      "plac": 3736,
      "plenty": 3737,
      "phasis": 3738,
      "boon": 3739,
      "bore": 3740,
      "board": 3741,
      "boldly": 3742,
      "cannot": 3743,
      "canvas": 3744,
      "worm": 3745,
      "worry": 3746,
      "worried": 3747,
      "tood": 3748,
      "pless": 3749,
      "plete": 3750,
      "ulous": 3751,
      "ulties": 3752,
      "Catch": 3753,
      "affair": 3754,
      "afford": 3755,
      "affection": 3756,
      "lose": 3757,
      "loving": 3758,
      "losing": 3759,
      "lodging": 3760,
      "voking": 3761,
      "volved": 3762,
      "howled": 3763,
      "rightly": 3764,
      "theirs": 3765,
      "uredly": 3766,
      "ended": 3767,
      "permitted": 3768,
      "acking": 3769,
      "dered": 3770,
      "justice": 3771,
      "hollow": 3772,
      "holid": 3773,
      "iouser": 3774,
      "readily": 3775,
      "ments": 3776,
      "turkey": 3777,
      "nevertheless": 3778,
      "THAN": 3779,
      "THING": 3780,
      "THRU": 3781,
      "THROU": 3782,
      "lark": 3783,
      "ishing": 3784,
      "ishly": 3785,
      "overhead": 3786,
      "overcome": 3787,
      "forepaws": 3788,
      "pigeon": 3789,
      "venth": 3790,
      "mineral": 3791,
      "OUS": 3792,
      "OUT": 3793,
      "OUTS": 3794,
      "backs": 3795,
      "marched": 3796,
      "elids": 3797,
      "eyed": 3798,
      "eyelids": 3799,
      "fail": 3800,
      "favour": 3801,
      "favoured": 3802,
      "handsome": 3803,
      "handwriting": 3804,
      "mans": 3805,
      "manners": 3806,
      "managing": 3807,
      "curly": 3808,
      "curving": 3809,
      "curtain": 3810,
      "curls": 3811,
      "currant": 3812,
      "curtse": 3813,
      "cattle": 3814,
      "caterpillar": 3815,
      "die": 3816,
      "died": 3817,
      "dive": 3818,
      "dibly": 3819,
      "diligently": 3820,
      "diamonds": 3821,
      "lower": 3822,
      "lowing": 3823,
      "ruden": 3824,
      "rushed": 3825,
      "rumbling": 3826,
      "rubbed": 3827,
      "Therefore": 3828,
      "largest": 3829,
      "doorway": 3830,
      "Soon": 3831,
      "Soles": 3832,
      "Though": 3833,
      "Thinking": 3834,
      "ils": 3835,
      "ilt": 3836,
      "lause": 3837,
      "lazy": 3838,
      "laughter": 3839,
      "lazily": 3840,
      "labelled": 3841,
      "speed": 3842,
      "spell": 3843,
      "growling": 3844,
      "growled": 3845,
      "growls": 3846,
      "tales": 3847,
      "ween": 3848,
      "xteen": 3849,
      "acter": 3850,
      "accus": 3851,
      "accusto": 3852,
      "accept": 3853,
      "pleasing": 3854,
      "pleases": 3855,
      "pleasanter": 3856,
      "wondered": 3857,
      "teeth": 3858,
      "teases": 3859,
      "wait": 3860,
      "common": 3861,
      "commot": 3862,
      "company": 3863,
      "complete": 3864,
      "cutting": 3865,
      "denies": 3866,
      "denial": 3867,
      "pty": 3868,
      "underneat": 3869,
      "finds": 3870,
      "iculous": 3871,
      "tremulous": 3872,
      "teaching": 3873,
      "teapot": 3874,
      "thank": 3875,
      "thanked": 3876,
      "settle": 3877,
      "setting": 3878,
      "Coming": 3879,
      "Collar": 3880,
      "Coils": 3881,
      "bleeds": 3882,
      "gland": 3883,
      "gloom": 3884,
      "glanced": 3885,
      "opinion": 3886,
      "opposite": 3887,
      "oldest": 3888,
      "meanwhile": 3889,
      "press": 3890,
      "prevent": 3891,
      "pressing": 3892,
      "fanning": 3893,
      "fanned": 3894,
      "childhood": 3895,
      "whiles": 3896,
      "Heads": 3897,
      "calling": 3898,
      "gust": 3899,
      "guard": 3900,
      "guilt": 3901,
      "kneel": 3902,
      "knelt": 3903,
      "pace": 3904,
      "paused": 3905,
      "papers": 3906,
      "proves": 3907,
      "prosecut": 3908,
      "proposal": 3909,
      "provoking": 3910,
      "walrus": 3911,
      "lessen": 3912,
      "impati": 3913,
      "crocodi": 3914,
      "eats": 3915,
      "eating": 3916,
      "eaten": 3917,
      "houses": 3918,
      "housemaid": 3919,
      "spoken": 3920,
      "tainly": 3921,
      "curiouser": 3922,
      "remembering": 3923,
      "dressed": 3924,
      "hearth": 3925,
      "shedding": 3926,
      "execute": 3927,
      "executes": 3928,
      "ddenly": 3929,
      "morsel": 3930,
      "stole": 3931,
      "stocking": 3932,
      "stopping": 3933,
      "waters": 3934,
      "HAD": 3935,
      "clubs": 3936,
      "clasped": 3937,
      "closer": 3938,
      "hippo": 3939,
      "supple": 3940,
      "flown": 3941,
      "flock": 3942,
      "flust": 3943,
      "flutter": 3944,
      "flashed": 3945,
      "flurry": 3946,
      "flung": 3947,
      "push": 3948,
      "puff": 3949,
      "reduc": 3950,
      "Whoever": 3951,
      "whereupon": 3952,
      "Dinn": 3953,
      "Herald": 3954,
      "jogged": 3955,
      "joys": 3956,
      "prote": 3957,
      "printed": 3958,
      "pronoun": 3959,
      "sentenced": 3960,
      "tray": 3961,
      "throne": 3962,
      "thrown": 3963,
      "listened": 3964,
      "choke": 3965,
      "choking": 3966,
      "footmen": 3967,
      "played": 3968,
      "INSIDE": 3969,
      "ITS": 3970,
      "ITIO": 3971,
      "farther": 3972,
      "mayn": 3973,
      "maybe": 3974,
      "parts": 3975,
      "partner": 3976,
      "partners": 3977,
      "tinent": 3978,
      "plainly": 3979,
      "THEN": 3980,
      "THESE": 3981,
      "THEIR": 3982,
      "speaker": 3983,
      "happening": 3984,
      "closely": 3985,
      "puzzle": 3986,
      "answers": 3987,
      "RED": 3988,
      "RETUR": 3989,
      "games": 3990,
      "standing": 3991,
      "whistle": 3992,
      "whispers": 3993,
      "shrimp": 3994,
      "shrieked": 3995,
      "feebly": 3996,
      "queerest": 3997,
      "hedges": 3998,
      "appearing": 3999,
      "appealed": 4000,
      "Involved": 4001,
      "VENT": 4002,
      "birthday": 4003,
      "busy": 4004,
      "ctice": 4005,
      "gravy": 4006,
      "grazed": 4007,
      "graceful": 4008,
      "globe": 4009,
      "minded": 4010,
      "askance": 4011,
      "sharing": 4012,
      "sharks": 4013,
      "buttered": 4014,
      "buttercup": 4015,
      "butterfly": 4016,
      "hurrying": 4017,
      "interrupt": 4018,
      "Antip": 4019,
      "Anything": 4020,
      "LLEN": 4021,
      "double": 4022,
      "fury": 4023,
      "furious": 4024,
      "furiously": 4025,
      "passing": 4026,
      "helpless": 4027,
      "reasons": 4028,
      "energetic": 4029,
      "soldier": 4030,
      "grins": 4031,
      "grinning": 4032,
      "conversations": 4033,
      "boxed": 4034,
      "trials": 4035,
      "listeners": 4036,
      "ANGE": 4037,
      "crab": 4038,
      "crashed": 4039,
      "crouched": 4040,
      "carry": 4041,
      "carrier": 4042,
      "frighten": 4043,
      "stool": 4044,
      "wore": 4045,
      "woke": 4046,
      "believed": 4047,
      "advice": 4048,
      "advise": 4049,
      "ppery": 4050,
      "sign": 4051,
      "twinkled": 4052,
      "dreamy": 4053,
      "dreaming": 4054,
      "dreamed": 4055,
      "learned": 4056,
      "doubling": 4057,
      "doubled": 4058,
      "helped": 4059,
      "reasonable": 4060,
      "Wouldn": 4061,
      "bowing": 4062,
      "brother": 4063,
      "creep": 4064,
      "clapping": 4065,
      "fourth": 4066,
      "prize": 4067,
      "spot": 4068,
      "spite": 4069,
      "spreading": 4070,
      "sprawling": 4071,
      "spades": 4072,
      "spirited": 4073,
      "wooden": 4074,
      "severity": 4075,
      "noticing": 4076,
      "submitted": 4077,
      "subdued": 4078,
      "quiver": 4079,
      "explained": 4080,
      "works": 4081,
      "tremble": 4082,
      "morals": 4083,
      "sneezed": 4084,
      "HATED": 4085,
      "NED": 4086,
      "NEAR": 4087,
      "brain": 4088,
      "brass": 4089,
      "bristling": 4090,
      "bathing": 4091,
      "drawing": 4092,
      "natured": 4093,
      "naturedly": 4094,
      "reaching": 4095,
      "chines": 4096,
      "kettle": 4097,
      "planning": 4098,
      "comfort": 4099,
      "comfortable": 4100,
      "comfortably": 4101,
      "YOURS": 4102,
      "fancying": 4103,
      "!\"?'": 4104,
      "III": 4105,
      "LEAVE": 4106,
      "LESS": 4107,
      "Like": 4108,
      "WITH": 4109,
      "WHATEVER": 4110,
      "awfully": 4111,
      "burst": 4112,
      "burning": 4113,
      "bursting": 4114,
      "drop": 4115,
      "dropping": 4116,
      "egg": 4117,
      "evidently": 4118,
      "merrily": 4119,
      "pairs": 4120,
      "screaming": 4121,
      "attends": 4122,
      "attended": 4123,
      "stupidly": 4124,
      "stupidest": 4125,
      "difficulties": 4126,
      "subjects": 4127,
      "pardoned": 4128,
      "schoolroom": 4129,
      "violence": 4130,
      "chimneys": 4131,
      "ASE": 4132,
      "BEE": 4133,
      "BEG": 4134,
      "BEFORE": 4135,
      "corners": 4136,
      "desk": 4137,
      "despair": 4138,
      "desks": 4139,
      "deserved": 4140,
      "daresay": 4141,
      "fix": 4142,
      "fixed": 4143,
      "fishes": 4144,
      "field": 4145,
      "grew": 4146,
      "grey": 4147,
      "ladder": 4148,
      "obstacle": 4149,
      "ridge": 4150,
      "riddle": 4151,
      "ridges": 4152,
      "ridiculous": 4153,
      "rabbits": 4154,
      "snout": 4155,
      "snapp": 4156,
      "snorting": 4157,
      "sorry": 4158,
      "tastes": 4159,
      "trusts": 4160,
      "ithing": 4161,
      "ithmetic": 4162,
      "argued": 4163,
      "stays": 4164,
      "hoped": 4165,
      "picture": 4166,
      "pictured": 4167,
      "presented": 4168,
      "finishing": 4169,
      "ignorant": 4170,
      "shrieks": 4171,
      "processions": 4172,
      "simpleton": 4173,
      "ARD": 4174,
      "Ada": 4175,
      "Advice": 4176,
      "Behead": 4177,
      "Before": 4178,
      "Because": 4179,
      "Quick": 4180,
      "Read": 4181,
      "Repeat": 4182,
      "Reeling": 4183,
      "SONS": 4184,
      "WASHING": 4185,
      "apple": 4186,
      "applause": 4187,
      "clean": 4188,
      "cleared": 4189,
      "crust": 4190,
      "dinn": 4191,
      "dismay": 4192,
      "disobe": 4193,
      "disgust": 4194,
      "drinking": 4195,
      "emphasis": 4196,
      "empty": 4197,
      "figures": 4198,
      "fireplace": 4199,
      "knock": 4200,
      "knocked": 4201,
      "locked": 4202,
      "pitied": 4203,
      "splashed": 4204,
      "splendid": 4205,
      "squeaked": 4206,
      "tulip": 4207,
      "traps": 4208,
      "trampl": 4209,
      "tunnel": 4210,
      "uckles": 4211,
      "vanishing": 4212,
      "wander": 4213,
      "incessantly": 4214,
      "remaining": 4215,
      "sticks": 4216,
      "fellows": 4217,
      "pointed": 4218,
      "uncomfortably": 4219,
      "officer": 4220,
      "indignant": 4221,
      "grunt": 4222,
      "judging": 4223,
      "twelfth": 4224,
      "loveliest": 4225,
      "hopeless": 4226,
      "hopeful": 4227,
      "pretend": 4228,
      "pretending": 4229,
      "pretty": 4230,
      "prettier": 4231,
      "pretexts": 4232,
      "counting": 4233,
      "country": 4234,
      "sorrows": 4235,
      "arguments": 4236,
      "Canary": 4237,
      "Canterbur": 4238,
      "END": 4239,
      "HIGH": 4240,
      "HOW": 4241,
      "Normans": 4242,
      "Shy": 4243,
      "Shan": 4244,
      "Shark": 4245,
      "TOOK": 4246,
      "TSEY": 4247,
      "audibly": 4248,
      "axis": 4249,
      "axes": 4250,
      "banks": 4251,
      "clearer": 4252,
      "clearly": 4253,
      "darkness": 4254,
      "fills": 4255,
      "flame": 4256,
      "flapper": 4257,
      "flavour": 4258,
      "flappers": 4259,
      "oblong": 4260,
      "purple": 4261,
      "purpose": 4262,
      "pattern": 4263,
      "slippery": 4264,
      "reality": 4265,
      "beheading": 4266,
      "upsetting": 4267,
      "tiplication": 4268,
      "fortunately": 4269,
      "noises": 4270,
      "peeping": 4271,
      "quicker": 4272,
      "quarrel": 4273,
      "quarrelled": 4274,
      "expected": 4275,
      "hoarsely": 4276,
      "elbows": 4277,
      "fairy": 4278,
      "fairly": 4279,
      "disagree": 4280,
      "weeks": 4281,
      "settling": 4282,
      "crossly": 4283,
      "letters": 4284,
      "beauti": 4285,
      "passionate": 4286,
      "SOMEBODY": 4287,
      "SOMEWHERE": 4288,
      "SOMETHING": 4289,
      "straightened": 4290,
      "straightening": 4291,
      "immediate": 4292,
      "telescopes": 4293,
      "BOOTS": 4294,
      "Change": 4295,
      "Chorus": 4296,
      "Christ": 4297,
      "DON": 4298,
      "DOTH": 4299,
      "DOES": 4300,
      "ESQ": 4301,
      "Edgar": 4302,
      "Latin": 4303,
      "Maybe": 4304,
      "QUEEN": 4305,
      "Suppress": 4306,
      "WONDER": 4307,
      "actually": 4308,
      "blows": 4309,
      "branch": 4310,
      "cries": 4311,
      "daughter": 4312,
      "drive": 4313,
      "driest": 4314,
      "dripping": 4315,
      "duced": 4316,
      "eels": 4317,
      "fighting": 4318,
      "given": 4319,
      "humble": 4320,
      "ieth": 4321,
      "kills": 4322,
      "killing": 4323,
      "maps": 4324,
      "machines": 4325,
      "mischief": 4326,
      "pinch": 4327,
      "potamus": 4328,
      "paint": 4329,
      "punished": 4330,
      "punching": 4331,
      "promise": 4332,
      "promised": 4333,
      "promising": 4334,
      "rats": 4335,
      "rattle": 4336,
      "skurried": 4337,
      "skirt": 4338,
      "skimming": 4339,
      "seriously": 4340,
      "series": 4341,
      "smoke": 4342,
      "tispiece": 4343,
      "twentieth": 4344,
      "tumbled": 4345,
      "attempts": 4346,
      "attempted": 4347,
      "resource": 4348,
      "recogn": 4349,
      "relieved": 4350,
      "respectable": 4351,
      "respectful": 4352,
      "engine": 4353,
      "engaged": 4354,
      "encouraged": 4355,
      "lifted": 4356,
      "meeting": 4357,
      "addressing": 4358,
      "alarmed": 4359,
      "positively": 4360,
      "declared": 4361,
      "examining": 4362,
      "sixpence": 4363,
      "THERE": 4364,
      "Somebody": 4365,
      "account": 4366,
      "accounting": 4367,
      "accounts": 4368,
      "denying": 4369,
      "swallowing": 4370,
      "swallowed": 4371,
      "appearance": 4372,
      "burnt": 4373,
      "frontispiece": 4374,
      "introduced": 4375,
      "disappointment": 4376,
      "beautify": 4377,
      "pencils": 4378,
      "uneasy": 4379,
      "explanations": 4380,
      "accidentally": 4381,
      "ADE": 4382,
      "ADVENT": 4383,
      "Alas": 4384,
      "Always": 4385,
      "EDITIO": 4386,
      "Imagine": 4387,
      "Improve": 4388,
      "Lastly": 4389,
      "MILE": 4390,
      "MILLEN": 4391,
      "NTY": 4392,
      "OVES": 4393,
      "PLEASE": 4394,
      "PLENTY": 4395,
      "SELF": 4396,
      "See": 4397,
      "Seals": 4398,
      "Stand": 4399,
      "Stupid": 4400,
      "Such": 4401,
      "Suddenly": 4402,
      "Stole": 4403,
      "Stolen": 4404,
      "VIII": 4405,
      "Write": 4406,
      "Writhing": 4407,
      "blown": 4408,
      "blacking": 4409,
      "barking": 4410,
      "barley": 4411,
      "brushing": 4412,
      "circle": 4413,
      "circum": 4414,
      "crazy": 4415,
      "cartwheels": 4416,
      "drowned": 4417,
      "draggled": 4418,
      "elegant": 4419,
      "eleventh": 4420,
      "faint": 4421,
      "faintly": 4422,
      "fifth": 4423,
      "fifteen": 4424,
      "frame": 4425,
      "frames": 4426,
      "family": 4427,
      "famili": 4428,
      "farmer": 4429,
      "hatching": 4430,
      "hatters": 4431,
      "kissed": 4432,
      "mournful": 4433,
      "mournfully": 4434,
      "patted": 4435,
      "patriotic": 4436,
      "pulling": 4437,
      "pulled": 4438,
      "sands": 4439,
      "soft": 4440,
      "softly": 4441,
      "scale": 4442,
      "scaly": 4443,
      "touch": 4444,
      "tougher": 4445,
      "treated": 4446,
      "various": 4447,
      "variation": 4448,
      "wags": 4449,
      "invented": 4450,
      "refused": 4451,
      "refresh": 4452,
      "ceiling": 4453,
      "salmon": 4454,
      "saucepan": 4455,
      "saucepans": 4456,
      "leading": 4457,
      "leaders": 4458,
      "isitively": 4459,
      "memory": 4460,
      "memorandum": 4461,
      "sternly": 4462,
      "stingy": 4463,
      "charges": 4464,
      "character": 4465,
      "chains": 4466,
      "terrier": 4467,
      "terribly": 4468,
      "shilling": 4469,
      "shillings": 4470,
      "feathers": 4471,
      "modern": 4472,
      "moderate": 4473,
      "muscular": 4474,
      "ravens": 4475,
      "uncommon": 4476,
      "uncommonly": 4477,
      "expression": 4478,
      "expressing": 4479,
      "OURS": 4480,
      "rustling": 4481,
      "rustled": 4482,
      "laughing": 4483,
      "undoing": 4484,
      "understood": 4485,
      "waistcoat": 4486,
      "complaining": 4487,
      "complained": 4488,
      "producing": 4489,
      "produced": 4490,
      "croqueting": 4491,
      "croqueted": 4492,
      "clamour": 4493,
      "tricks": 4494,
      "trickling": 4495,
      "HEARTS": 4496,
      "HEARTHRU": 4497,
      "couples": 4498,
      "furrows": 4499,
      "signify": 4500,
      "signifies": 4501,
      "desperate": 4502,
      "desperately": 4503,
      "truthful": 4504,
      "squeeze": 4505,
      "squeezed": 4506,
      "daisy": 4507,
      "daisies": 4508,
      "FULCRU": 4509,
      "murdering": 4510,
      "annoyed": 4511,
      "neighbouring": 4512,
      "uglifying": 4513,
      "occasional": 4514,
      "occasionally": 4515,
      "Ambition": 4516,
      "Arithmetic": 4517,
      "Ahem": 4518,
      "Atheling": 4519,
      "Australia": 4520,
      "Brandy": 4521,
      "Besides": 4522,
      "Birds": 4523,
      "Between": 4524,
      "Boots": 4525,
      "Begin": 4526,
      "BUSY": 4527,
      "CIOUS": 4528,
      "Classic": 4529,
      "Certainly": 4530,
      "Carroll": 4531,
      "Curiouser": 4532,
      "Croquet": 4533,
      "CURTSEY": 4534,
      "COURT": 4535,
      "Derision": 4536,
      "Drive": 4537,
      "Distraction": 4538,
      "Each": 4539,
      "Elsie": 4540,
      "England": 4541,
      "EVERYBODY": 4542,
      "EVEN": 4543,
      "Evidence": 4544,
      "FOOT": 4545,
      "FROM": 4546,
      "Fainting": 4547,
      "Fifteenth": 4548,
      "Fourteenth": 4549,
      "Fetch": 4550,
      "Forty": 4551,
      "FENDER": 4552,
      "GGARD": 4553,
      "Geography": 4554,
      "Grief": 4555,
      "Grammar": 4556,
      "Hjckrrh": 4557,
      "Hole": 4558,
      "Hadn": 4559,
      "Hardly": 4560,
      "Indeed": 4561,
      "Idiot": 4562,
      "KNOW": 4563,
      "Little": 4564,
      "London": 4565,
      "Leave": 4566,
      "Lacie": 4567,
      "Laughing": 4568,
      "Lewis": 4569,
      "MYSELF": 4570,
      "Magpie": 4571,
      "Multiplication": 4572,
      "MARMAL": 4573,
      "Nile": 4574,
      "Nearly": 4575,
      "NIUM": 4576,
      "ORANGE": 4577,
      "PROVES": 4578,
      "Puss": 4579,
      "Pinch": 4580,
      "PERSONS": 4581,
      "Party": 4582,
      "PRECIOUS": 4583,
      "POCKET": 4584,
      "Rule": 4585,
      "RABBIT": 4586,
      "RIGHT": 4587,
      "Sixteen": 4588,
      "Swim": 4589,
      "Sentence": 4590,
      "Stigand": 4591,
      "Shakespe": 4592,
      "Seaography": 4593,
      "SOUP": 4594,
      "Stretching": 4595,
      "SWIM": 4596,
      "Stuff": 4597,
      "SHOES": 4598,
      "SLUGGARD": 4599,
      "Tale": 4600,
      "Talking": 4601,
      "Trims": 4602,
      "Tillie": 4603,
      "Twenty": 4604,
      "Those": 4605,
      "TRUE": 4606,
      "TCOAT": 4607,
      "URES": 4608,
      "Waiting": 4609,
      "WATCH": 4610,
      "WAISTCOAT": 4611,
      "Zealand": 4612,
      "avoid": 4613,
      "banquet": 4614,
      "balls": 4615,
      "balanced": 4616,
      "brave": 4617,
      "breeze": 4618,
      "blame": 4619,
      "bawled": 4620,
      "blades": 4621,
      "climb": 4622,
      "coward": 4623,
      "cherry": 4624,
      "centre": 4625,
      "calmly": 4626,
      "cardboard": 4627,
      "cunning": 4628,
      "conger": 4629,
      "crept": 4630,
      "crawled": 4631,
      "custard": 4632,
      "dainties": 4633,
      "dunce": 4634,
      "fidgeted": 4635,
      "flew": 4636,
      "fading": 4637,
      "foolish": 4638,
      "ggling": 4639,
      "gallons": 4640,
      "gained": 4641,
      "glaring": 4642,
      "horse": 4643,
      "honest": 4644,
      "haste": 4645,
      "hundred": 4646,
      "highest": 4647,
      "jelly": 4648,
      "journey": 4649,
      "knuckles": 4650,
      "lines": 4651,
      "louder": 4652,
      "linked": 4653,
      "lamps": 4654,
      "languid": 4655,
      "lullaby": 4656,
      "length": 4657,
      "mallets": 4658,
      "magic": 4659,
      "nasty": 4660,
      "oyster": 4661,
      "powdered": 4662,
      "practice": 4663,
      "piteous": 4664,
      "panted": 4665,
      "patience": 4666,
      "suet": 4667,
      "scolded": 4668,
      "sweet": 4669,
      "scratching": 4670,
      "slightest": 4671,
      "scrambling": 4672,
      "tittered": 4673,
      "tidy": 4674,
      "tinkling": 4675,
      "tureen": 4676,
      "vague": 4677,
      "vulgar": 4678,
      "vinegar": 4679,
      "wider": 4680,
      "warning": 4681,
      "wriggling": 4682,
      "wife": 4683,
      "wrapping": 4684,
      "wept": 4685,
      "wearily": 4686,
      "welcome": 4687,
      "yelled": 4688,
      "yelp": 4689,
      "zigzag": 4690,
      "insolence": 4691,
      "inquisitively": 4692,
      "injure": 4693,
      "inclined": 4694,
      "inquired": 4695,
      "ancient": 4696,
      "athies": 4697,
      "retire": 4698,
      "remedies": 4699,
      "received": 4700,
      "tomorrow": 4701,
      "thirteen": 4702,
      "thunderstorm": 4703,
      "educations": 4704,
      "enormous": 4705,
      "enjoy": 4706,
      "engraved": 4707,
      "seldom": 4708,
      "secret": 4709,
      "arrived": 4710,
      "arrum": 4711,
      "arranged": 4712,
      "shepherd": 4713,
      "beloved": 4714,
      "adoption": 4715,
      "stalk": 4716,
      "stances": 4717,
      "strings": 4718,
      "strength": 4719,
      "stretching": 4720,
      "steady": 4721,
      "choosing": 4722,
      "chrysalis": 4723,
      "chuckled": 4724,
      "vegetable": 4725,
      "velvet": 4726,
      "shifting": 4727,
      "rippling": 4728,
      "newspapers": 4729,
      "rosetree": 4730,
      "histories": 4731,
      "impertinent": 4732,
      "deepest": 4733,
      "unwillingly": 4734,
      "uncorked": 4735,
      "unlocking": 4736,
      "capering": 4737,
      "cheeks": 4738,
      "existence": 4739,
      "extras": 4740,
      "exclamation": 4741,
      "consented": 4742,
      "contradicted": 4743,
      "consultation": 4744,
      "conduct": 4745,
      "placed": 4746,
      "affectionately": 4747,
      "holiday": 4748,
      "THROUGH": 4749,
      "OUTSIDE": 4750,
      "failure": 4751,
      "favourite": 4752,
      "currants": 4753,
      "curtsey": 4754,
      "rudeness": 4755,
      "accusation": 4756,
      "accustomed": 4757,
      "acceptance": 4758,
      "commotion": 4759,
      "completely": 4760,
      "underneath": 4761,
      "gloomily": 4762,
      "prosecute": 4763,
      "impatient": 4764,
      "crocodile": 4765,
      "stockings": 4766,
      "hippopotamus": 4767,
      "flustered": 4768,
      "fluttered": 4769,
      "puffed": 4770,
      "reduced": 4771,
      "protection": 4772,
      "pronounced": 4773,
      "RETURNED": 4774,
      "Antipathies": 4775,
      "snappishly": 4776,
      "disobey": 4777,
      "splendidly": 4778,
      "trampled": 4779,
      "Canterbury": 4780,
      "Christmas": 4781,
      "WONDERLAND": 4782,
      "recognised": 4783,
      "ADVENTURES": 4784,
      "EDITION": 4785,
      "MILLENNIUM": 4786,
      "circumstances": 4787,
      "familiarly": 4788,
      "variations": 4789,
      "refreshments": 4790,
      "HEARTHRUG": 4791,
      "FULCRUM": 4792,
      "Classics": 4793,
      "CURTSEYING": 4794,
      "MARMALADE": 4795,
      "Sixteenth": 4796,
      "Shakespeare": 4797
    },
    "merges": [
      "h e",
      "t he",
      "i n",
      "a n",
      "o u",
      "i t",
      "e r",
      "a t",
      "o n",
      "in g",
      "r e",
      "t o",
      "an d",
      "t h",
      "a s",
      "e d",
      "e n",
      "i d",
      "l l",
      "c e",
      "s e",
      "l i",
      "s a",
      "o f",
      "l e",
      "a r",
      "o r",
      "s he",
      "o w",
      "i s",
      "b e",
      "m e",
      "sa id",
      "a d",
      "y ou",
      "s t",
      ", '",
      "A li",
      "Ali ce",
      "l y",
      "w as",
      "c h",
      "v er",
      "he r",
      "l d",
      "u t",
      "g h",
      "a ll",
      "o t",
      "! '",
      "th at",
      "w h",
      "- -",
      "s o",
      "u r",
      "v e",
      "ou t",
      "o o",
      "en t",
      "k e",
      "gh t",
      "w it",
      "ou ld",
      "g e",
      "a b",
      "t le",
      "t er",
      "wit h",
      "s h",
      "a l",
      "n d",
      "r i",
      "e s",
      ". '",
      "u p",
      "T he",
      "a y",
      "h ad",
      "on e",
      "i r",
      "n e",
      "t i",
      "c k",
      "f or",
      "th ing",
      "ver y",
      "? '",
      "d o",
      "n ot",
      "the r",
      "b ut",
      "oo k",
      "n ow",
      "a in",
      "h a",
      "u e",
      "r y",
      "r o",
      "ow n",
      "l it",
      "a g",
      "the y",
      "i f",
      "se l",
      "lit tle",
      "n o",
      "W h",
      "h is",
      "sel f",
      "p e",
      "f e",
      "i m",
      "th is",
      "m o",
      "s u",
      "m u",
      "s s",
      "a re",
      "ar d",
      "se e",
      "i ll",
      "l ook",
      "r a",
      "ou se",
      "be g",
      "p o",
      "d e",
      "d own",
      "e ll",
      "w er",
      "i on",
      "ou nd",
      "w he",
      "w ay",
      "ou ght",
      "k now",
      "it e",
      "wh at",
      "u n",
      "ab out",
      "in k",
      "ag ain",
      "the m",
      "g o",
      "ou r",
      "li ke",
      "c a",
      "w ent",
      "wer e",
      "her self",
      "c ould",
      "w ould",
      "c he",
      "th ought",
      "of f",
      "so me",
      "ti me",
      "c o",
      "on g",
      "a m",
      "i ce",
      "f o",
      "in d",
      "Q ue",
      "d id",
      "Que en",
      "o ther",
      "q u",
      "ge t",
      "ha ve",
      "e t",
      "u s",
      "the n",
      "an y",
      "at ter",
      "e x",
      "sa y",
      "b it",
      "g r",
      "p p",
      "t ing",
      "whe n",
      "a ke",
      "o ck",
      "as t",
      "A nd",
      "e a",
      "s i",
      "he ad",
      "in to",
      "the re",
      "er s",
      "you r",
      "I t",
      "c on",
      "j u",
      "wh o",
      "wh i",
      "K ing",
      "T ur",
      "m y",
      "p l",
      "an t",
      "p h",
      "t w",
      "it s",
      "th ink",
      "b o",
      "c an",
      "k ing",
      "w or",
      "ou s",
      "re at",
      "to o",
      "ri ed",
      "Tur tle",
      "c t",
      "beg an",
      "k ed",
      "l ing",
      "M ock",
      "b y",
      "m b",
      "p le",
      "G ry",
      "H atter",
      "u l",
      "ph on",
      "Gry phon",
      "C at",
      "a f",
      "l o",
      "m ouse",
      "w on",
      "mu ch",
      "g ot",
      "v o",
      "qu ite",
      "d on",
      "e p",
      "h ow",
      "q ue",
      "ri ght",
      "Y ou",
      "the ir",
      "ab bit",
      "ir st",
      "n ing",
      "vo ice",
      "u re",
      "en d",
      "c our",
      "p er",
      "on ly",
      "or t",
      "a ck",
      "d er",
      "e ver",
      "l ed",
      "-- '",
      "mo re",
      "ju st",
      "h o",
      "i ght",
      "he re",
      "ou gh",
      "D u",
      "R abbit",
      "h im",
      "i ous",
      "re ad",
      "look ed",
      "f irst",
      "m ad",
      "m ent",
      "t ur",
      "re e",
      "ne ver",
      "mu st",
      "T H",
      "l ar",
      "is h",
      "e ar",
      "o ver",
      "r ound",
      "t one",
      "Wh at",
      "ca me",
      "che ss",
      "fo re",
      "Du chess",
      "p i",
      "u se",
      "v en",
      "at e",
      "whi ch",
      "D or",
      "E R",
      "H ow",
      "l ong",
      "m in",
      "w ell",
      "er p",
      "ar ch",
      "sh ould",
      "su ch",
      "see m",
      "Dor mouse",
      "O U",
      "S he",
      "b ack",
      "g reat",
      "m ar",
      "af ter",
      "a ve",
      "d ay",
      "e l",
      "e y",
      "m ake",
      "s id",
      "be en",
      "ro m",
      "B ut",
      "f a",
      "h and",
      "m an",
      "an ce",
      "oo d",
      "c ur",
      "l ast",
      "p ut",
      "be fore",
      "O h",
      "c at",
      "d i",
      "l ow",
      "r u",
      "an g",
      "re p",
      "M arch",
      "f rom",
      "en ce",
      "The re",
      "co me",
      "lar ge",
      "do or",
      "S o",
      "T h",
      "d s",
      "i l",
      "u ll",
      "ar t",
      "ab le",
      "look ing",
      "tw o",
      "min ut",
      "H are",
      "d ed",
      "j ur",
      "l a",
      "s pe",
      "t ell",
      "u nd",
      "on ce",
      "thing s",
      "mo ment",
      "de ar",
      "M ouse",
      "e st",
      "f ound",
      "l t",
      "s at",
      "t al",
      "he ard",
      "no thing",
      "beg in",
      "gr ow",
      "mad e",
      "e very",
      "r ow",
      "t a",
      "w e",
      "x t",
      "li ed",
      "ne ar",
      "ey es",
      "rep lied",
      "D o",
      "a c",
      "a ir",
      "h ur",
      "m ight",
      "re mar",
      "th ree",
      "en ed",
      "es s",
      "ne xt",
      "ill ar",
      "ple as",
      "won der",
      "tur n",
      "erp illar",
      "N o",
      "a me",
      "d y",
      "e ven",
      "t e",
      "t ry",
      "v ing",
      "w a",
      "ar m",
      "up on",
      "Wh y",
      "go ing",
      "co m",
      "mb er",
      "Cat erpillar",
      "seem ed",
      "Th at",
      "c ut",
      "d en",
      "g ood",
      "i ld",
      "p t",
      "w r",
      "as s",
      "all y",
      "so on",
      "with out",
      "cour se",
      "jur y",
      "und er",
      "A T",
      "a way",
      "f ind",
      "i c",
      "t re",
      "t ea",
      "w ill",
      "th an",
      "se t",
      "is t",
      "ra ther",
      "po or",
      "get ting",
      "C o",
      "b le",
      "f ull",
      "g l",
      "g ard",
      "h as",
      "o p",
      "o ld",
      "r an",
      "s it",
      "it ing",
      "on s",
      "me an",
      "ha pp",
      "gard en",
      "W ell",
      "Y OU",
      "p re",
      "s ort",
      "he d",
      "sa me",
      "ad ded",
      "ve s",
      "oo m",
      "sh all",
      "al f",
      "fe lt",
      "bo dy",
      "too k",
      "\" '",
      "O f",
      "f an",
      "h alf",
      "i ve",
      "p s",
      "r oom",
      "t en",
      "t able",
      "an other",
      "ch ild",
      "ti ll",
      "do es",
      "Wh ite",
      "whi le",
      "que st",
      "ure s",
      "H e",
      "c all",
      "g s",
      "g u",
      "k ne",
      "p a",
      "p ro",
      "s m",
      "t ed",
      "w al",
      "w ish",
      "y et",
      "le ss",
      "The n",
      "The y",
      "im p",
      "us ed",
      "wor ds",
      "sid e",
      "minut e",
      "Co me",
      "quest ion",
      "c ro",
      "c ried",
      "e at",
      "f in",
      "h ouse",
      "s po",
      "t ain",
      "t ake",
      "v ed",
      "re me",
      "ll ow",
      "le s",
      "le t",
      "oo l",
      "pe at",
      "su re",
      "fa ce",
      "cur ious",
      "reme mber",
      "a h",
      "a k",
      "a p",
      "c er",
      "d re",
      "e cut",
      "f ul",
      "h ard",
      "i g",
      "i se",
      "m id",
      "t ried",
      "z e",
      "he ar",
      "in ter",
      "re peat",
      "le ep",
      "she d",
      "be ing",
      "fe et",
      "any thing",
      "ex ecut",
      "ious ly",
      "M a",
      "V ER",
      "` --",
      "a ge",
      "a king",
      "d den",
      "i ly",
      "m or",
      "s to",
      "w at",
      "en ough",
      "ent ly",
      "ca use",
      "si l",
      "full y",
      "A s",
      "H A",
      "T his",
      "c l",
      "c lo",
      "h i",
      "i shed",
      "s up",
      "v ent",
      "in e",
      "an x",
      "ou p",
      "as ked",
      "ha ps",
      "if f",
      "if ul",
      "su dden",
      "some thing",
      "cour t",
      "ear s",
      "turn ed",
      "spo ke",
      ". )",
      ": --",
      "B ill",
      "I f",
      "d iff",
      "f l",
      "o ot",
      "p u",
      "an ge",
      "ou d",
      "re d",
      "le f",
      "le ar",
      "ti ly",
      "Wh o",
      "mo st",
      "whe re",
      "tal king",
      "has tily",
      "does n",
      "cer tain",
      "D in",
      "H er",
      "I S",
      "b st",
      "d one",
      "j o",
      "p r",
      "r ing",
      "s ent",
      "t r",
      "t ri",
      "w ant",
      "in de",
      "an s",
      "it y",
      "re n",
      "th r",
      "id ea",
      "se en",
      "li e",
      "li st",
      "ch o",
      "ch ange",
      "ab y",
      "are d",
      "ra w",
      "po se",
      "fo ot",
      "say ing",
      "pp ed",
      "pl ay",
      "remar k",
      "call ed",
      "sm all",
      "hi gh",
      "inde ed",
      "I N",
      "I T",
      "b ot",
      "b aby",
      "c reat",
      "f ar",
      "i re",
      "i ck",
      "m ou",
      "m ay",
      "n er",
      "n ess",
      "p art",
      "s ing",
      "s ur",
      "t in",
      "t ter",
      "z z",
      "it ed",
      "it self",
      "to ge",
      "se a",
      "sa w",
      "be cause",
      "be tter",
      "way s",
      "did n",
      "pl ain",
      "bo th",
      "ct ly",
      "per haps",
      "TH E",
      "pi e",
      "spe ak",
      "tal k",
      "begin ning",
      "te m",
      "try ing",
      "happ en",
      "kne w",
      "VER Y",
      "clo se",
      "anx iously",
      "pu zz",
      "lef t",
      "Din ah",
      "ans wer",
      "mou th",
      "toge ther",
      "F or",
      "R E",
      "S oup",
      "b ook",
      "c ook",
      "d ance",
      "e k",
      "f all",
      "g one",
      "g ave",
      "g ame",
      "h ind",
      "m p",
      "o ple",
      "r un",
      "s w",
      "le ave",
      "be hind",
      "st and",
      "ut iful",
      "wh y",
      "wh is",
      "ke pt",
      "sh ri",
      "Wh i",
      "pe ople",
      "fe e",
      "ss ed",
      "fo llow",
      "si ze",
      "who le",
      "que er",
      "tur ning",
      "TH AT",
      "How ever",
      "cat s",
      "sat ion",
      "Do do",
      "hur ried",
      "pleas e",
      "hed ge",
      "ap pe",
      "certain ly",
      "thr ough",
      "C HA",
      "I n",
      "N ow",
      "P T",
      "V E",
      "W ill",
      "Y es",
      "a ce",
      "b b",
      "b ir",
      "b us",
      "c ti",
      "e ly",
      "g ra",
      "g lo",
      "i o",
      "i ther",
      "j est",
      "m ind",
      "m any",
      "n ame",
      "r up",
      "s l",
      "s ound",
      "re st",
      "as k",
      "li fe",
      "be a",
      "st ill",
      "ch ing",
      "-- \"",
      "ge on",
      "sh ar",
      "al ways",
      "ti mid",
      "but ter",
      "ard s",
      "ra id",
      "de al",
      "would n",
      "che s",
      "am ong",
      "con f",
      "ant ly",
      "af raid",
      "ort ant",
      "erp ent",
      "el se",
      "hand s",
      "di re",
      "every thing",
      "ta il",
      "hur ry",
      "imp ortant",
      "fin ished",
      "inter rup",
      "Ma jest",
      "sup pose",
      "sudden ly",
      "jo in",
      "CHA PT",
      "Majest y",
      "CHAPT ER",
      "A n",
      "F oot",
      "H E",
      "L D",
      "L L",
      "L et",
      "M E",
      "P i",
      "c ou",
      "d ou",
      "e ag",
      "f ur",
      "h all",
      "k en",
      "m atter",
      "n g",
      "p ass",
      "r ink",
      "s is",
      "s ne",
      "s leep",
      "he l",
      "the se",
      "in st",
      "at es",
      "at ion",
      "re as",
      "re ally",
      "en er",
      "en se",
      "li ve",
      "is ed",
      "was n",
      "ver sation",
      "ld i",
      "so ldi",
      "ke ep",
      "sh out",
      "de ep",
      "whe ther",
      "che d",
      "off end",
      "time s",
      "gr in",
      "con versation",
      "pl ace",
      "bo x",
      "make s",
      "minut es",
      "grow ing",
      "wa ited",
      "gl ad",
      "Of f",
      "hard ly",
      "execut ion",
      "sil ence",
      "Her e",
      "tri al",
      "list en",
      "glo ves",
      "Foot man",
      "Pi geon",
      "eag er",
      "sis ter",
      "sne e",
      "A N",
      "O n",
      "W e",
      "W he",
      "b right",
      "c r",
      "c id",
      "c ar",
      "c up",
      "d ist",
      "f right",
      "g ener",
      "o h",
      "p ers",
      "p ool",
      "s too",
      "t s",
      "t ears",
      "u ed",
      "u st",
      "u mb",
      "w o",
      "w s",
      "w ind",
      "th ough",
      "as e",
      "be st",
      "be lie",
      "ad v",
      "ch ang",
      "ke y",
      "wit ness",
      "sh o",
      "ri ly",
      "ck ed",
      "ha ving",
      "pp er",
      "si g",
      "si ght",
      "your self",
      "ju mp",
      "tw ink",
      "think ing",
      "wor d",
      "que t",
      "read y",
      "sid er",
      "near ly",
      "remar ked",
      "gl ass",
      "op en",
      "op ened",
      "sit ting",
      "fan c",
      "child ren",
      "wal ked",
      "less ons",
      "dre am",
      "repeat ed",
      "lear n",
      "bot tle",
      "creat ures",
      "pie ce",
      "hedge ho",
      "shar p",
      "dou b",
      "hel p",
      "reas on",
      "soldi ers",
      "offend ed",
      "Whe n",
      ", )",
      "A t",
      "B ea",
      "D on",
      "K n",
      "N O",
      "N ot",
      "W ould",
      "b ow",
      "b ro",
      "c re",
      "c are",
      "c la",
      "c row",
      "d le",
      "e ct",
      "e ither",
      "f our",
      "g ive",
      "k y",
      "k ind",
      "l oud",
      "o se",
      "p ri",
      "r ate",
      "s p",
      "s erpent",
      "u c",
      "u ght",
      "w ood",
      "er ent",
      "at i",
      "to p",
      "th ose",
      "se ver",
      "le ast",
      "or der",
      "ly ing",
      "sh ook",
      "not ic",
      "fe w",
      "su b",
      "again st",
      "go ld",
      "could n",
      "qu i",
      "ex plain",
      "head s",
      "con tin",
      "wor k",
      "lo bst",
      "ho ld",
      "pi g",
      "OU LD",
      "ang rily",
      "com ing",
      "tre mb",
      "mor al",
      "diff erent",
      "part y",
      "puzz led",
      "fee ling",
      "bir ds",
      "timid ly",
      "interrup ted",
      "shout ed",
      "snee z",
      "belie ve",
      "Kn ave",
      "contin ued",
      ") ,",
      "H AT",
      "N E",
      "a ctly",
      "b r",
      "b at",
      "d ly",
      "d ry",
      "d read",
      "d raw",
      "f ish",
      "g ed",
      "m n",
      "m ed",
      "m aking",
      "n at",
      "n ed",
      "n ice",
      "o pp",
      "s low",
      "t ree",
      "u su",
      "v id",
      "re a",
      "to ry",
      "as h",
      "as leep",
      "se s",
      "li ght",
      "is s",
      "ch in",
      "wh ite",
      "wh iting",
      "ke t",
      "sh room",
      "up id",
      "ne y",
      "for got",
      "ha ven",
      "no se",
      "fe el",
      "mu shroom",
      "un ity",
      "am ing",
      "pl an",
      "ul t",
      "end ing",
      "ort unity",
      "ate ly",
      "fa ct",
      "art s",
      "ac le",
      "wa iting",
      "com for",
      "mean ing",
      "garden ers",
      "YOU R",
      "pro ce",
      "cro quet",
      "run ning",
      "whis per",
      "Whi ch",
      "follow ed",
      "appe ared",
      "cti on",
      "sl ates",
      "bea utiful",
      "conf us",
      "eager ly",
      "dist ance",
      "wind ow",
      "chang ed",
      "fanc y",
      "doub t",
      "notic ed",
      "opp ortunity",
      "slow ly",
      "! \"",
      ". \"'",
      "C he",
      "F irst",
      "F ive",
      "I I",
      "J ust",
      "L E",
      "L i",
      "L or",
      "S oo",
      "W I",
      "W HAT",
      "a w",
      "b ur",
      "b read",
      "c i",
      "c ket",
      "d ro",
      "e g",
      "e vid",
      "f r",
      "g er",
      "g ir",
      "h ot",
      "h un",
      "j ect",
      "l s",
      "m i",
      "m er",
      "p y",
      "p up",
      "p ard",
      "p air",
      "s ch",
      "s ong",
      "s cre",
      "u mber",
      "v io",
      "in t",
      "in ess",
      "an k",
      "er y",
      "at t",
      "as ter",
      "li sh",
      "sa ge",
      "le mn",
      "ar k",
      "ar y",
      "is n",
      "st upid",
      "ch im",
      "so lemn",
      "oo p",
      "sh ow",
      "sh ut",
      "sh ire",
      "had n",
      "ne ck",
      "ti red",
      "ck ing",
      "ha ir",
      "his tory",
      "mo ved",
      "ss i",
      "ss ion",
      "beg un",
      "po ssi",
      "de cid",
      "de light",
      "go es",
      "other s",
      "gr own",
      "gr ound",
      "ea ch",
      "si gh",
      "con sider",
      "wor ld",
      "ul ar",
      "how ever",
      "lar ger",
      "min e",
      "ey e",
      "sid es",
      "man age",
      "pleas ed",
      "wonder ing",
      "wr iting",
      "tre es",
      "ons ense",
      "happ ened",
      "pre ssed",
      "mid dle",
      "sto ry",
      "wat ch",
      "sil ent",
      "vent ure",
      "vent ures",
      "diff ic",
      "fl aming",
      "pr ised",
      "sur prised",
      "tem per",
      "tem pt",
      "bus iness",
      "fright ened",
      "gener ally",
      "stoo d",
      "hedgeho g",
      "NO T",
      "ati ently",
      "sub ject",
      "gold en",
      "qui et",
      "lobst ers",
      "Che shire",
      "Lor y",
      "pup py",
      "pard on",
      "sch ool",
      "vio l",
      "chim ney",
      "decid ed",
      "flaming o",
      "A S",
      "A f",
      "A RE",
      "B E",
      "E ng",
      "H ear",
      "O ne",
      "T wo",
      "U S",
      "b ly",
      "c or",
      "d es",
      "d are",
      "e f",
      "e en",
      "f i",
      "f un",
      "g ing",
      "g re",
      "h our",
      "i am",
      "l an",
      "l ad",
      "l ate",
      "m en",
      "n ur",
      "n onsense",
      "o bst",
      "r id",
      "r abbit",
      "s n",
      "s or",
      "s ir",
      "s im",
      "t ch",
      "t ast",
      "t ru",
      "t arts",
      "u g",
      "w ise",
      "w ards",
      "z es",
      "z ard",
      "in ea",
      "in ches",
      "an im",
      "ou ble",
      "it h",
      "it ten",
      "er ed",
      "to ld",
      "id e",
      "se con",
      "li ked",
      "ar gu",
      "is on",
      "be l",
      "be at",
      "me lan",
      "you th",
      "st ay",
      "ld ed",
      "ut ter",
      "-- `",
      "al ong",
      "al most",
      "ti c",
      "ro of",
      "lit ely",
      "ag ed",
      "pe pper",
      "fe ll",
      "fe tch",
      "im ed",
      "ss ing",
      "po cket",
      "po litely",
      "ca ke",
      "ex ce",
      "ex cla",
      "my self",
      "wor th",
      "ho p",
      "him self",
      "read ing",
      "pi ct",
      "pi gs",
      "mar ked",
      "spe ct",
      "arm s",
      "wr itten",
      "under stand",
      "pre sent",
      "gu ess",
      "gu inea",
      "sm i",
      "fin ish",
      "ig n",
      "inter est",
      "execut ed",
      "tr ouble",
      "cho ly",
      "leave s",
      "shri ek",
      "Will iam",
      "gra ve",
      "execution er",
      "pers on",
      "sho es",
      "jump ed",
      "bro ken",
      "tremb ling",
      "sneez ing",
      "dread fully",
      "forgot ten",
      "proce ssion",
      "Li zard",
      "evid ence",
      "scre am",
      "diffic ult",
      "Af ter",
      "Eng lish",
      "Hear ts",
      "sim ple",
      "anim al",
      "melan choly",
      "excla imed",
      "\" --",
      "' ;",
      "( `",
      "A R",
      "A d",
      "A h",
      "A ll",
      "B e",
      "C on",
      "E x",
      "L obst",
      "M y",
      "P le",
      "Q u",
      "R e",
      "S O",
      "S even",
      "S HE",
      "T ell",
      "V ery",
      "W here",
      "W OULD",
      "W AS",
      "a id",
      "a ther",
      "a pp",
      "b s",
      "b ring",
      "c ed",
      "c le",
      "c ry",
      "c ru",
      "c ase",
      "d in",
      "d is",
      "d rink",
      "e m",
      "e as",
      "f f",
      "f ing",
      "f ri",
      "f ig",
      "f ire",
      "g ar",
      "h ook",
      "i ed",
      "i es",
      "i bb",
      "k id",
      "k no",
      "l ay",
      "l ock",
      "m on",
      "m ain",
      "m utter",
      "n y",
      "n if",
      "n ight",
      "n ine",
      "n ibb",
      "p it",
      "p ack",
      "s pl",
      "s que",
      "s ky",
      "t u",
      "t ra",
      "t un",
      "u sh",
      "u ck",
      "v an",
      "v ous",
      "w and",
      "w ink",
      "he ight",
      "in ce",
      "re t",
      "re main",
      "th row",
      "as king",
      "ed s",
      "sa dly",
      "of ten",
      "ar ing",
      "ar row",
      "be tw",
      "be come",
      "me ant",
      "you ng",
      "st ran",
      "st ick",
      "all ow",
      "ot e",
      "sh an",
      "sh rink",
      "al oud",
      "al together",
      "ti l",
      "do ing",
      "not ice",
      "ro ss",
      "no body",
      "fe llow",
      "su l",
      "ra ce",
      "po in",
      "un comfor",
      "un til",
      "like ly",
      "off ic",
      "some body",
      "some times",
      "fo lded",
      "ind ign",
      "ex actly",
      "gr un",
      "pp ing",
      "ju d",
      "tw ice",
      "tw el",
      "mb s",
      "lo ve",
      "end s",
      "ho me",
      "ho pe",
      "should n",
      "seem s",
      "cur io",
      "ang ry",
      "rep ly",
      "jur or",
      "spe aking",
      "every body",
      "ta king",
      "near er",
      "ac ross",
      "air s",
      "even ing",
      "wa ving",
      "wr ite",
      "wr ong",
      "tre acle",
      "tea cup",
      "sit y",
      "mean s",
      "pre t",
      "kne e",
      "pa ws",
      "wal k",
      "wal king",
      "imp atiently",
      "face s",
      "remember ed",
      "dre w",
      "mor ning",
      "sto p",
      "wat er",
      "cl ock",
      "sent ence",
      "raw ling",
      "IN K",
      "ner vous",
      "sur pri",
      "happen s",
      "sw im",
      "sw am",
      "shri ll",
      "Whi le",
      "bb ing",
      "sound ed",
      "dire ction",
      "cou n",
      "pass ed",
      "sleep y",
      "inst antly",
      "sig hed",
      "twink le",
      "Bea utiful",
      "crow ded",
      "usu al",
      "whisper ed",
      "confus ion",
      "WI LL",
      "dro pped",
      "eg gs",
      "quiet ly",
      "sor row",
      "argu ment",
      "interest ing",
      "Lobst er",
      "Ple ase",
      "fing er",
      "hook ah",
      "betw een",
      "stran ge",
      "curio sity",
      "surpri se",
      ") .",
      ", \"",
      ", \"'",
      ". \"",
      "? --",
      "A L",
      "A re",
      "A LL",
      "B y",
      "C E",
      "C an",
      "C all",
      "C AN",
      "C OULD",
      "E N",
      "E very",
      "F ren",
      "H I",
      "H O",
      "H ER",
      "H old",
      "I D",
      "I CE",
      "M ary",
      "N or",
      "N ever",
      "O NE",
      "S h",
      "S ure",
      "S aid",
      "T O",
      "T S",
      "T ake",
      "W ith",
      "` \"",
      "a u",
      "a x",
      "b reat",
      "b ank",
      "c us",
      "c lear",
      "d ish",
      "d ark",
      "e ad",
      "f on",
      "f ly",
      "f ill",
      "f ast",
      "f low",
      "f la",
      "g ue",
      "g ently",
      "h on",
      "k it",
      "l and",
      "m s",
      "m ing",
      "m ice",
      "m aster",
      "n one",
      "n umber",
      "o b",
      "o c",
      "p an",
      "p as",
      "p ar",
      "p or",
      "p ur",
      "p atter",
      "s li",
      "s oup",
      "s ince",
      "t ong",
      "u m",
      "u ce",
      "u de",
      "v il",
      "v age",
      "w ow",
      "w ild",
      "y er",
      "y aw",
      "he ld",
      "in v",
      "it ude",
      "at ed",
      "on es",
      "re al",
      "to m",
      "th or",
      "th im",
      "ll e",
      "ll ed",
      "li ves",
      "sa vage",
      "ar re",
      "ar se",
      "ar ches",
      "or us",
      "be head",
      "ad ri",
      "ad ventures",
      "st s",
      "st ra",
      "st art",
      "st airs",
      "was h",
      "ch ance",
      "ver se",
      "ver di",
      "ver ses",
      "her s",
      "ot s",
      "-- \"'",
      "so bs",
      "ur al",
      "sh ort",
      "al one",
      "es ca",
      "up set",
      "ne w",
      "ne at",
      "ti p",
      "for tun",
      "ro se",
      "own ing",
      "sel ves",
      "no ise",
      "pe t",
      "pe ep",
      "fe ar",
      "fe ctly",
      "im med",
      "ra ge",
      "po ise",
      "de ad",
      "ion s",
      "ca pit",
      "che n",
      "thought fully",
      "other wise",
      "qu ick",
      "qu arre",
      "ex pe",
      "say s",
      "gr ass",
      "si c",
      "con cl",
      "con tempt",
      "ct ed",
      "per fectly",
      "led ge",
      "ho le",
      "ho arse",
      "TH IS",
      "ear th",
      "should er",
      "should ers",
      "day s",
      "el bow",
      "fa ir",
      "man aged",
      "di sa",
      "ru le",
      "ru sh",
      "begin s",
      "ta ken",
      "ta ught",
      "we ek",
      "No thing",
      "te en",
      "te les",
      "jury men",
      "set t",
      "pa le",
      "pa per",
      "question s",
      "cro ss",
      "let ter",
      "hear ing",
      "Ma bel",
      "HA VE",
      "sup pressed",
      "oot iful",
      "want ed",
      "play ers",
      "IN G",
      "bot tom",
      "creat ure",
      "tin y",
      "puzz ling",
      "answer ed",
      "mouth s",
      "fall en",
      "bus ily",
      "sl ate",
      "bea ut",
      "conf used",
      "An n",
      "cou rage",
      "pass ion",
      "deep ly",
      "AN D",
      "car ried",
      "sho re",
      "jump ing",
      "twink ling",
      "sharp ly",
      "Bea u",
      "bow ed",
      "crow d",
      "sever al",
      "sever ely",
      "order ed",
      "bat s",
      "nat ural",
      "rea ch",
      "ci vil",
      "fr owning",
      "gir l",
      "hun g",
      "solemn ly",
      "possi ble",
      "venture d",
      "viol ently",
      "decided ly",
      "cor ner",
      "gre en",
      "hour s",
      "secon d",
      "tic ular",
      "exce pt",
      "pict ures",
      "scream ed",
      "difficult y",
      "animal s",
      "Qu adri",
      "SO ME",
      "cru mbs",
      "van ished",
      "ret ched",
      "shrink ing",
      "poin ting",
      "uncomfor table",
      "offic ers",
      "indign antly",
      "grun ted",
      "jud ge",
      "twel ve",
      "juror s",
      "Fren ch",
      "breat h",
      "fon d",
      "hon our",
      "kit chen",
      "pas sage",
      "par ticular",
      "por poise",
      "tong ue",
      "thim ble",
      "stra ight",
      "verdi ct",
      "esca pe",
      "immed i",
      "capit al",
      "teles co",
      "Quadri lle",
      "! --",
      "! \"'",
      "\" !'",
      "? \"'",
      "A VE",
      "B O",
      "C a",
      "C h",
      "D O",
      "D id",
      "D own",
      "D rawling",
      "E S",
      "E d",
      "E ag",
      "G H",
      "G o",
      "G ive",
      "H ave",
      "I s",
      "L at",
      "L ong",
      "M ay",
      "M iss",
      "M US",
      "O F",
      "O w",
      "O RE",
      "P r",
      "P an",
      "P er",
      "P at",
      "Q U",
      "R U",
      "S up",
      "S il",
      "S erpent",
      "T i",
      "T or",
      "T wink",
      "W O",
      "W on",
      "Y et",
      "a ct",
      "a il",
      "a live",
      "b low",
      "b ran",
      "b rea",
      "c and",
      "c ce",
      "c ri",
      "c ting",
      "c il",
      "c ards",
      "d a",
      "d ri",
      "d ull",
      "d uc",
      "e ch",
      "e el",
      "f its",
      "f lo",
      "f ight",
      "f ree",
      "f aster",
      "g i",
      "g ged",
      "h ang",
      "h umb",
      "i e",
      "k ill",
      "k ers",
      "k ick",
      "k nif",
      "l at",
      "m a",
      "m is",
      "m ist",
      "m iss",
      "m pet",
      "n ers",
      "o m",
      "o ve",
      "p in",
      "p en",
      "p ot",
      "p ain",
      "p un",
      "p ast",
      "p rom",
      "p ity",
      "r at",
      "s k",
      "s er",
      "s mo",
      "s imp",
      "s ense",
      "t is",
      "t went",
      "t umb",
      "u ne",
      "u ous",
      "u ff",
      "v y",
      "w in",
      "x ed",
      "y est",
      "an ced",
      "ou n",
      "it ted",
      "er ing",
      "er day",
      "at tempt",
      "re s",
      "re co",
      "re lie",
      "re spect",
      "to es",
      "to ise",
      "to ssing",
      "th and",
      "as hed",
      "ed n",
      "ed ed",
      "ed ge",
      "en g",
      "en cour",
      "li f",
      "li very",
      "li ved",
      "li ged",
      "sa d",
      "le gs",
      "ar ound",
      "she s",
      "is ing",
      "be ast",
      "be long",
      "be low",
      "be sides",
      "me s",
      "me t",
      "me et",
      "ad ed",
      "ad dre",
      "st aring",
      "st uff",
      "ch orus",
      "ut iously",
      "so bbing",
      "out side",
      "oo se",
      "ab ove",
      "sh ap",
      "sh aking",
      "al as",
      "al arm",
      "ne st",
      "ne edn",
      "for getting",
      "do g",
      "do gs",
      "not ion",
      "ry ing",
      "ro g",
      "ro ses",
      "ag ing",
      "fe ct",
      "im possible",
      "mo ve",
      "mo ving",
      "su it",
      "su lt",
      "su cce",
      "mu sic",
      "po sit",
      "po ison",
      "de cl",
      "ion ed",
      "know ledge",
      "un important",
      "un fortun",
      "them selves",
      "our n",
      "ca ught",
      "ca utiously",
      "che cked",
      "che ered",
      "ex am",
      "ex plan",
      "ex tra",
      "gr and",
      "si x",
      "Tur n",
      "pl ate",
      "ant age",
      "tw ist",
      "bo y",
      "wor se",
      "ple aded",
      "lo st",
      "much ness",
      "how ling",
      "voice s",
      "der land",
      "ough ly",
      "Du ck",
      "ment ioned",
      "must ard",
      "TH ER",
      "TH INK",
      "pi cked",
      "long er",
      "mar k",
      "hand ed",
      "put ting",
      "cat ch",
      "cat ion",
      "di g",
      "ru les",
      "So me",
      "Th ank",
      "spe ech",
      "dear s",
      "grow l",
      "ta le",
      "ac les",
      "ac cid",
      "ac coun",
      "hur t",
      "remar king",
      "pleas ant",
      "turn s",
      "No body",
      "den y",
      "wr ote",
      "find ing",
      "happ y",
      "sort s",
      "pa w",
      "pro per",
      "less on",
      "cro ssed",
      "repeat ing",
      "sto pped",
      "wat ching",
      "anx ious",
      "pr ison",
      "tr ot",
      "tr ue",
      "cho ked",
      "foot man",
      "remark s",
      "small er",
      "sw allow",
      "whis kers",
      "follow s",
      "appe ar",
      "cti ons",
      "sound s",
      "dire ctions",
      "tail s",
      "join ed",
      "fur ther",
      "inst ance",
      "inst ead",
      "grin ned",
      "listen ing",
      "On ce",
      "On ly",
      "cr own",
      "cr ash",
      "gener al",
      "adv ance",
      "adv antage",
      "open ing",
      "piece s",
      "hedgeho gs",
      "care fully",
      "loud ly",
      "pri zes",
      "sp read",
      "serpent s",
      "uc us",
      "hold ing",
      "br ought",
      "usu ally",
      "confus ing",
      "bur n",
      "fr on",
      "gir ls",
      "hun ting",
      "mi les",
      "int ro",
      "att ending",
      "possi bly",
      "sigh ing",
      "consider ing",
      "consider ed",
      "ef fect",
      "fun ny",
      "lad y",
      "nur se",
      "nur sing",
      "sn ail",
      "tast ed",
      "tru mpet",
      "cake s",
      "hop ing",
      "spect acles",
      "guess ed",
      "grave ly",
      "Ad ventures",
      "Con sider",
      "Ex actly",
      "bring ing",
      "eas ily",
      "fri end",
      "fig ure",
      "kno cking",
      "mutter ing",
      "nibb ling",
      "spl ash",
      "tu cked",
      "remain ed",
      "sul ky",
      "AL ICE",
      "HI M",
      "cus to",
      "fill ed",
      "gue sts",
      "ob liged",
      "patter ing",
      "sli pped",
      "behead ed",
      "peep ed",
      "expe cting",
      "contempt uous",
      "disa p",
      "sett led",
      "beaut if",
      "hung ry",
      "immedi ately",
      "telesco pe",
      "Ca ucus",
      "Eag let",
      "MUS T",
      "Ow l",
      "Pr ay",
      "Pan ther",
      "Per haps",
      "Sil ence",
      "Ti me",
      "Tor toise",
      "Twink le",
      "Won derland",
      "brea the",
      "cand le",
      "flo or",
      "hang ing",
      "knif e",
      "lat er",
      "mist ake",
      "pen cil",
      "simp ly",
      "une as",
      "yest erday",
      "shap ed",
      "succe eded",
      "unfortun ate",
      "explan ation",
      "accid ent",
      "' ,",
      ") ;",
      ") --",
      ". --",
      "? \"",
      "A D",
      "A M",
      "A l",
      "A ID",
      "A THER",
      "C r",
      "C HO",
      "D R",
      "D Y",
      "D ER",
      "D ig",
      "E D",
      "E T",
      "E VER",
      "F U",
      "F ur",
      "F ound",
      "F ish",
      "F IT",
      "F ather",
      "F ATHER",
      "G et",
      "G AVE",
      "H ush",
      "I F",
      "I _",
      "I m",
      "I AM",
      "K e",
      "L ast",
      "L IT",
      "M I",
      "M er",
      "M or",
      "M ind",
      "M IN",
      "M ORE",
      "N T",
      "N ex",
      "N important",
      "O VE",
      "O LD",
      "P e",
      "P o",
      "P en",
      "P ar",
      "P ri",
      "P ig",
      "P LE",
      "P res",
      "R o",
      "R US",
      "S E",
      "S T",
      "S e",
      "S t",
      "S u",
      "S to",
      "S pe",
      "S hall",
      "S AID",
      "T re",
      "T is",
      "T LE",
      "T WO",
      "U R",
      "U g",
      "U p",
      "U gh",
      "U Nimportant",
      "V II",
      "W r",
      "W ow",
      "W ake",
      "Y our",
      "_ I_",
      "` '",
      "a ked",
      "a ws",
      "a vy",
      "b l",
      "b re",
      "b ar",
      "b is",
      "b ad",
      "b ite",
      "b our",
      "b end",
      "b last",
      "b ble",
      "b ark",
      "b eds",
      "b arrow",
      "b rush",
      "c ing",
      "c as",
      "c ir",
      "c ra",
      "c art",
      "c ool",
      "c uc",
      "c ush",
      "d r",
      "d an",
      "d ing",
      "d les",
      "d run",
      "d uce",
      "e w",
      "e le",
      "f er",
      "f ain",
      "f if",
      "f ra",
      "f am",
      "f arm",
      "f ash",
      "f oun",
      "f rog",
      "g id",
      "g ular",
      "g oose",
      "h it",
      "h at",
      "h atter",
      "h ate",
      "h int",
      "i sa",
      "i gh",
      "i ef",
      "j ar",
      "j aws",
      "k s",
      "k not",
      "k ily",
      "k iss",
      "l id",
      "l one",
      "l ves",
      "l ine",
      "m ur",
      "m il",
      "m mer",
      "m itted",
      "m ourn",
      "n or",
      "n am",
      "n arrow",
      "o gra",
      "p at",
      "p ing",
      "p id",
      "p arch",
      "p ence",
      "p ull",
      "p atiently",
      "r on",
      "r ance",
      "r att",
      "s and",
      "s ed",
      "s en",
      "s of",
      "s ca",
      "s ang",
      "s cro",
      "s nat",
      "s ending",
      "t ou",
      "t ly",
      "t all",
      "t ab",
      "t reat",
      "t reading",
      "t ones",
      "u ld",
      "u gh",
      "u ded",
      "u mp",
      "v ar",
      "v our",
      "w ag",
      "w et",
      "w ea",
      "w ig",
      "w ine",
      "w ide",
      "w retched",
      "y s",
      "y al",
      "y ear",
      "z y",
      "z ing",
      "z ed",
      "he art",
      "he avy",
      "in ing",
      "in vent",
      "an ing",
      "an no",
      "ou red",
      "it ation",
      "it ated",
      "it ions",
      "er or",
      "er able",
      "at om",
      "ing s",
      "re f",
      "re w",
      "re ts",
      "re moved",
      "re gular",
      "to e",
      "th ro",
      "th ous",
      "th umb",
      "th ump",
      "th rew",
      "as se",
      "as ha",
      "ed itions",
      "ll ing",
      "ll ent",
      "ll ect",
      "ce i",
      "se ll",
      "li ving",
      "li fi",
      "sa l",
      "sa fe",
      "sa lt",
      "sa ult",
      "sa uce",
      "le ad",
      "le gged",
      "le aning",
      "or ter",
      "or din",
      "or nam",
      "she lves",
      "is it",
      "be ar",
      "be came",
      "me ly",
      "me mor",
      "me ek",
      "st er",
      "st ing",
      "st ir",
      "st am",
      "st ant",
      "st ep",
      "st ru",
      "st ery",
      "st retched",
      "was ting",
      "ch ar",
      "ch ain",
      "ch ief",
      "ver ed",
      "ot ic",
      "so mer",
      "ent ed",
      "ent ang",
      "ent ire",
      "ge s",
      "ab sur",
      "tle s",
      "ter ed",
      "ter ri",
      "with in",
      "sh ill",
      "sh orter",
      "al so",
      "al ready",
      "ri a",
      "The se",
      "ne ither",
      "ne igh",
      "ti es",
      "ti ers",
      "for get",
      "do th",
      "not e",
      "now here",
      "ro lled",
      "ro ots",
      "ro yal",
      "ag o",
      "ag ree",
      "ag ine",
      "pe ared",
      "pe bble",
      "fe ather",
      "im ent",
      "this tle",
      "mo der",
      "su n",
      "su gar",
      "su mmer",
      "mu s",
      "ra ven",
      "ra il",
      "ra ving",
      "ra ised",
      "ra pid",
      "ound s",
      "know s",
      "know ing",
      "what ever",
      "un com",
      "un less",
      "un folded",
      "un pleasant",
      "un happy",
      "un rolled",
      "ca used",
      "ca uld",
      "thought s",
      "off er",
      "some where",
      "co ax",
      "co llect",
      "qu eror",
      "us ing",
      "us ion",
      "ex per",
      "ex tre",
      "ex pre",
      "your s",
      "con cer",
      "con stant",
      "who se",
      "pl ates",
      "ph y",
      "ph antly",
      "bo ards",
      "bo ots",
      "ling ing",
      "by e",
      "mb ling",
      "mb led",
      "ure d",
      "cour tiers",
      "tur tles",
      "ear ls",
      "ear nest",
      "fore head",
      "pi cking",
      "use ful",
      "long ed",
      "arch bis",
      "OU R",
      "after wards",
      "el s",
      "fa ther",
      "man ner",
      "cur led",
      "cur red",
      "last ed",
      "put e",
      "cat ching",
      "di pped",
      "di shes",
      "ru st",
      "ru de",
      "ru bbing",
      "ang er",
      "come s",
      "door s",
      "ull y",
      "la p",
      "la w",
      "la id",
      "la ug",
      "la bel",
      "la ugh",
      "tell s",
      "tell ing",
      "und o",
      "und ers",
      "Do es",
      "pleas ure",
      "wonder ful",
      "wa ist",
      "com plain",
      "com fits",
      "den ied",
      "soon er",
      "under tone",
      "ist ed",
      "ist ling",
      "ble w",
      "has n",
      "old er",
      "ive ly",
      "pa use",
      "pro ve",
      "pro ved",
      "pro duc",
      "cro que",
      "fin e",
      "spo on",
      "tain s",
      "take s",
      "let s",
      "wat ched",
      "cl am",
      "clo sed",
      "fl at",
      "lef thand",
      "lear ning",
      "most ly",
      "where ver",
      "pr oud",
      "ring lets",
      "tri ck",
      "tri um",
      "want s",
      "cho se",
      "cho ice",
      "change s",
      "foot step",
      "play ing",
      "remark able",
      "small est",
      "IT E",
      "sing ing",
      "sing ers",
      "THE Y",
      "book s",
      "fall ing",
      "fee ble",
      "hurried ly",
      "bb ed",
      "bir d",
      "mind ing",
      "name s",
      "rest ing",
      "dire ctly",
      "dire cted",
      "interrup ting",
      "HE AR",
      "cou ple",
      "fur row",
      "matter s",
      "keep ing",
      "shout ing",
      "place s",
      "execution s",
      "sister s",
      "snee ze",
      "bright ened",
      "car rying",
      "cup boards",
      "dist ant",
      "pers isted",
      "stoo p",
      "umb led",
      "wo man",
      "adv isa",
      "chang ing",
      "sig ned",
      "sig nif",
      "fanc ied",
      "learn t",
      "bro ke",
      "care s",
      "cla ws",
      "kind ly",
      "ught er",
      "order ing",
      "gold fish",
      "lobst er",
      "tremb led",
      "feeling s",
      "sneez es",
      "NE VER",
      "br own",
      "dread ful",
      "nice ly",
      "proce ed",
      "doubt ful",
      "doubt fully",
      "ci a",
      "mi le",
      "mi xed",
      "mer ely",
      "int ment",
      "sage s",
      "show er",
      "show ing",
      "shut ting",
      "delight ed",
      "delight ful",
      "temper ed",
      "viol ent",
      "flamingo es",
      "BE ST",
      "des per",
      "rid dles",
      "tast e",
      "tru th",
      "ug ly",
      "ug lif",
      "secon dly",
      "beat ing",
      "exce llent",
      "present s",
      "smi le",
      "smi ling",
      "smi led",
      "person al",
      "Con queror",
      "Ex plain",
      "My stery",
      "Re ally",
      "app les",
      "cle ver",
      "cry ing",
      "din ner",
      "dis pute",
      "eas y",
      "fri ends",
      "lock s",
      "mon th",
      "mutter ed",
      "ny worth",
      "nibb led",
      "sque e",
      "sque aking",
      "uck ily",
      "wand ered",
      "wand ering",
      "throw ing",
      "sul kily",
      "love ly",
      "teacup s",
      "swim ming",
      "WILL IAM",
      "sorrow ful",
      "Every thing",
      "Every body",
      "HER E",
      "ID E",
      "Nor thumb",
      "au thor",
      "flow er",
      "flow ers",
      "ms on",
      "oc cas",
      "oc curred",
      "pan ting",
      "pur ring",
      "wild ly",
      "yaw ning",
      "yaw ned",
      "inv ited",
      "inv itation",
      "thor oughly",
      "start ed",
      "start led",
      "wash ing",
      "neat ly",
      "tip toe",
      "quick ly",
      "quarre lling",
      "concl uded",
      "concl usion",
      "teen th",
      "BO DY",
      "Ed win",
      "Lat itude",
      "Long itude",
      "QU ITE",
      "Sup pose",
      "bran ches",
      "cri mson",
      "da is",
      "gi ving",
      "humb ly",
      "mis erable",
      "miss ed",
      "pin ched",
      "pain ting",
      "smo king",
      "twent y",
      "tumb ling",
      "reco vered",
      "relie f",
      "encour aging",
      "beast s",
      "belong s",
      "mes sages",
      "addre ssed",
      "posit ion",
      "decl are",
      "exam ine",
      "extra ordin",
      "dig ging",
      "prison er",
      "trot ting",
      "fron t",
      "intro duce",
      "splash ing",
      "custo dy",
      "contemptuous ly",
      "disap peared",
      "beautif ully",
      "uneas ily",
      "Cr ab",
      "CHO RUS",
      "DR INK",
      "Dig ging",
      "FU L",
      "Fur y",
      "Ke ep",
      "LIT TLE",
      "Mer cia",
      "Mor car",
      "MIN E",
      "Nex t",
      "Pe pper",
      "Po or",
      "Pen nyworth",
      "Par is",
      "Pri zes",
      "Pres ently",
      "Ro me",
      "Spe ak",
      "Tre acle",
      "Ug lifi",
      "bre ak",
      "blast s",
      "barrow ful",
      "cuc umber",
      "cush ion",
      "dan cing",
      "drun k",
      "fer rets",
      "fash ion",
      "foun tains",
      "gid dy",
      "lone ly",
      "mur der",
      "mil k",
      "ogra phy",
      "parch ment",
      "ratt ling",
      "sen sation",
      "scro ll",
      "snat ch",
      "tall er",
      "tab ly",
      "wea k",
      "anno y",
      "thro at",
      "thous and",
      "asse mbled",
      "asha med",
      "ornam ented",
      "meek ly",
      "stir ring",
      "stam ping",
      "stru ck",
      "somer sault",
      "entang led",
      "entire ly",
      "absur d",
      "neigh bour",
      "pebble s",
      "rail way",
      "rapid ly",
      "cauld ron",
      "coax ing",
      "collect ed",
      "exper iment",
      "extre mely",
      "concer t",
      "earnest ly",
      "archbis hop",
      "laug hed",
      "trium phantly",
      "footstep s",
      "advisa ble",
      "uglif y",
      "Northumb ria",
      "author ity",
      "occas ion",
      "extraordin ary",
      "Uglifi cation",
      "\" ?'",
      "' )",
      ") :",
      ") :--",
      ") --`",
      ". ]",
      ". --`",
      "? )",
      "A B",
      "A m",
      "A r",
      "A he",
      "A the",
      "A llow",
      "A IS",
      "A ust",
      "B r",
      "B es",
      "B ir",
      "B et",
      "B ack",
      "B oot",
      "B ring",
      "B IT",
      "B eg",
      "B US",
      "C H",
      "C I",
      "C K",
      "C O",
      "C l",
      "C er",
      "C ar",
      "C ur",
      "C ro",
      "C RU",
      "C UR",
      "C OUR",
      "D er",
      "D ri",
      "D ear",
      "D ist",
      "D rink",
      "E Y",
      "E a",
      "E l",
      "E n",
      "E ven",
      "E AT",
      "E VERY",
      "E VE",
      "E ither",
      "E vid",
      "E EN",
      "F O",
      "F R",
      "F ain",
      "F if",
      "F our",
      "F et",
      "F ort",
      "F rom",
      "F EN",
      "F ORE",
      "F rog",
      "F rance",
      "G E",
      "G G",
      "G e",
      "G ri",
      "G ra",
      "G round",
      "G ood",
      "G ame",
      "H j",
      "H m",
      "H o",
      "H and",
      "H as",
      "H is",
      "H ad",
      "H im",
      "H ard",
      "H alf",
      "H IS",
      "H ING",
      "I O",
      "I R",
      "I U",
      "I V",
      "I X",
      "I nd",
      "I di",
      "I GH",
      "J ack",
      "K NO",
      "K ING",
      "L F",
      "L U",
      "L it",
      "L on",
      "L ook",
      "L ea",
      "L ac",
      "L au",
      "L AND",
      "L OVE",
      "L ew",
      "L uckily",
      "M Y",
      "M ad",
      "M ag",
      "M ul",
      "M ine",
      "M AR",
      "M AL",
      "N S",
      "N i",
      "N ay",
      "N ear",
      "N umber",
      "N onsense",
      "N DER",
      "N ew",
      "N IU",
      "O K",
      "O M",
      "O R",
      "O T",
      "O r",
      "O u",
      "O ur",
      "O ICE",
      "O TS",
      "O CK",
      "P R",
      "P u",
      "P in",
      "P ER",
      "P art",
      "P ool",
      "P RE",
      "P OCK",
      "R u",
      "R un",
      "R ight",
      "R OU",
      "R ace",
      "R AB",
      "R IGH",
      "S S",
      "S i",
      "S w",
      "S it",
      "S ing",
      "S ent",
      "S ir",
      "S ti",
      "S ha",
      "S ea",
      "S OU",
      "S ame",
      "S tre",
      "S till",
      "S IT",
      "S top",
      "S tory",
      "S WI",
      "S tu",
      "S ends",
      "S HO",
      "S ounds",
      "S IDE",
      "S LU",
      "T a",
      "T o",
      "T en",
      "T ut",
      "T oo",
      "T al",
      "T ri",
      "T ill",
      "T went",
      "T ea",
      "T ho",
      "T able",
      "T ears",
      "T IS",
      "T arts",
      "T RU",
      "T UR",
      "T CO",
      "U RE",
      "V I",
      "V isit",
      "V OICE",
      "W E",
      "W a",
      "W as",
      "W AT",
      "W HERE",
      "W AIS",
      "X I",
      "X II",
      "Y ET",
      "Z e",
      "` \"--",
      "a ld",
      "a pe",
      "a che",
      "a vo",
      "a fore",
      "a ving",
      "a zing",
      "a mus",
      "b an",
      "b ed",
      "b all",
      "b ent",
      "b al",
      "b one",
      "b ag",
      "b ill",
      "b ra",
      "b ound",
      "b other",
      "b ough",
      "b ree",
      "b la",
      "b aw",
      "b lad",
      "b ones",
      "b aked",
      "c li",
      "c ow",
      "c her",
      "c ent",
      "c al",
      "c ard",
      "c un",
      "c ong",
      "c rep",
      "c raw",
      "c ust",
      "c ular",
      "c rawling",
      "c um",
      "c linging",
      "d d",
      "d u",
      "d ain",
      "d un",
      "d ried",
      "d ded",
      "d ates",
      "d ued",
      "d dle",
      "d ged",
      "d ging",
      "d uck",
      "e h",
      "e th",
      "e ed",
      "e ld",
      "e pe",
      "e am",
      "e ked",
      "e ling",
      "f it",
      "f at",
      "f th",
      "f id",
      "f le",
      "f ad",
      "f oo",
      "f ive",
      "f fee",
      "f lying",
      "f itted",
      "f rying",
      "f linging",
      "f umbled",
      "g g",
      "g n",
      "g and",
      "g th",
      "g her",
      "g all",
      "g ay",
      "g ain",
      "g ant",
      "g led",
      "g ree",
      "g lar",
      "g ather",
      "g azing",
      "h ing",
      "h id",
      "h or",
      "h one",
      "h ast",
      "h ood",
      "h und",
      "h arm",
      "h ig",
      "h ide",
      "h ush",
      "i li",
      "i ver",
      "i al",
      "i ation",
      "i cted",
      "i otic",
      "j ell",
      "j our",
      "j aw",
      "j ourn",
      "k n",
      "k er",
      "l in",
      "l ou",
      "l en",
      "l ve",
      "l ink",
      "l am",
      "l ous",
      "l ang",
      "l ence",
      "l ull",
      "l ved",
      "l ately",
      "l eng",
      "l oose",
      "l uckily",
      "m as",
      "m ly",
      "m all",
      "m ot",
      "m ag",
      "m pl",
      "m ous",
      "m only",
      "m mar",
      "m ense",
      "m aid",
      "n ly",
      "n ast",
      "n ately",
      "o y",
      "o be",
      "o thing",
      "o intment",
      "o dd",
      "p ed",
      "p ow",
      "p her",
      "p es",
      "p ra",
      "p po",
      "p ite",
      "p ink",
      "p our",
      "p any",
      "p ant",
      "p ine",
      "p ans",
      "p ation",
      "p ati",
      "p ends",
      "p oured",
      "p ounds",
      "r h",
      "r m",
      "r or",
      "r us",
      "r ant",
      "r ang",
      "r ist",
      "r ising",
      "r oughly",
      "r itated",
      "r rh",
      "s on",
      "s ue",
      "s ite",
      "s ink",
      "s our",
      "s co",
      "s its",
      "s end",
      "s ence",
      "s we",
      "s cr",
      "s light",
      "s cra",
      "t y",
      "t it",
      "t on",
      "t id",
      "t se",
      "t ut",
      "t ent",
      "t ink",
      "t ure",
      "t art",
      "t ons",
      "t ching",
      "t ide",
      "u id",
      "u cat",
      "u ally",
      "u cer",
      "u bs",
      "v as",
      "v ag",
      "v ice",
      "v ul",
      "v ine",
      "v ote",
      "v oured",
      "w id",
      "w ar",
      "w ri",
      "w if",
      "w ard",
      "w ra",
      "w ep",
      "w ear",
      "w el",
      "w inter",
      "w ings",
      "y e",
      "y ly",
      "y es",
      "y thing",
      "y ard",
      "y ell",
      "y el",
      "y ears",
      "y ards",
      "z ag",
      "z ig",
      "z ily",
      "he st",
      "he ap",
      "he arts",
      "he els",
      "the less",
      "in y",
      "in ed",
      "in so",
      "in ion",
      "in qu",
      "in ju",
      "in ted",
      "in side",
      "in cl",
      "in qui",
      "in wards",
      "in sult",
      "an ter",
      "an ci",
      "ou ched",
      "er al",
      "er ved",
      "er fully",
      "at h",
      "at te",
      "at hi",
      "at ching",
      "on y",
      "on ds",
      "on ions",
      "on oun",
      "ing le",
      "ing ly",
      "re sh",
      "re ti",
      "re turned",
      "re turning",
      "re med",
      "re eds",
      "re aring",
      "re sult",
      "re cei",
      "re minding",
      "to ri",
      "to ss",
      "to ast",
      "to day",
      "to ps",
      "to mor",
      "to wards",
      "to ys",
      "to ffee",
      "to rm",
      "and y",
      "and um",
      "th in",
      "th ir",
      "th day",
      "th under",
      "th ick",
      "th unders",
      "as is",
      "as es",
      "as ure",
      "as ide",
      "as sic",
      "as ped",
      "ed ucat",
      "en ing",
      "en or",
      "en did",
      "en jo",
      "en gra",
      "en ced",
      "en courage",
      "id s",
      "id es",
      "id iotic",
      "ll s",
      "ll ar",
      "ce pt",
      "ce ful",
      "se ld",
      "se ven",
      "se arch",
      "se cut",
      "se cre",
      "se ated",
      "se aside",
      "li a",
      "li p",
      "li s",
      "li est",
      "li ps",
      "li cking",
      "li mbs",
      "li gently",
      "li cation",
      "sa ve",
      "sa ves",
      "sa ucer",
      "sa lis",
      "le y",
      "le st",
      "le ant",
      "le ap",
      "le aving",
      "ar ly",
      "ar ri",
      "ar ru",
      "ar gue",
      "ar rang",
      "or ting",
      "or ant",
      "she ep",
      "she pher",
      "is ion",
      "be lo",
      "be lt",
      "be ak",
      "be coming",
      "be lled",
      "be lls",
      "me at",
      "me al",
      "me tic",
      "me asure",
      "ad e",
      "ad s",
      "ad es",
      "ad op",
      "ad ding",
      "ad icted",
      "ad journ",
      "st ar",
      "st al",
      "st ate",
      "st ance",
      "st iff",
      "st ring",
      "st ren",
      "st ation",
      "st ret",
      "st ead",
      "st eam",
      "was te",
      "ch oo",
      "ch ry",
      "ch air",
      "ch op",
      "ch uck",
      "ch anced",
      "ch atte",
      "ld ing",
      "ld ly",
      "gh ing",
      "gh thand",
      "!' )",
      "that ched",
      "wh istling",
      "-- (",
      "-- ]",
      "so b",
      "so lid",
      "so bbed",
      "so othing",
      "ur ry",
      "ur ried",
      "ur pation",
      "ve get",
      "ve lve",
      "ent y",
      "ent rance",
      "ke spe",
      "wit s",
      "ge tic",
      "ab ide",
      "ab sence",
      "ter bur",
      "ter ms",
      "ter nately",
      "ter ror",
      "sh if",
      "sh are",
      "sh ake",
      "sh ock",
      "sh ared",
      "sh ining",
      "sh ape",
      "sh iver",
      "sh yly",
      "sh iny",
      "sh ingle",
      "sh ade",
      "al s",
      "al and",
      "al ed",
      "al tered",
      "al ternately",
      "ri er",
      "ri se",
      "ri ch",
      "ri pp",
      "ri per",
      "ri ses",
      "ri otic",
      "ri ghthand",
      ".' )",
      "up right",
      "up stairs",
      "The ir",
      "one self",
      "ir t",
      "ir ons",
      "ir ited",
      "ir ritated",
      "ne l",
      "ne ws",
      "ne eds",
      "ti e",
      "ti er",
      "ti on",
      "ti ed",
      "ti ght",
      "ti pped",
      "ck led",
      "ck rrh",
      "for d",
      "for k",
      "for m",
      "for wards",
      "?' ,",
      "do ze",
      "do zing",
      "do dged",
      "but tons",
      "ro ll",
      "ro ck",
      "ro pe",
      "ro ast",
      "ro set",
      "ro ared",
      "ro cket",
      "own ed",
      "ag gled",
      "ag ony",
      "no dded",
      "his s",
      "his tori",
      "pe gs",
      "pe ering",
      "fe ared",
      "fe ction",
      "im per",
      "im ming",
      "im itated",
      "im agine",
      "im mense",
      "mo on",
      "mo mile",
      "mu ddle",
      "mu lous",
      "ss antly",
      "see ing",
      "ra pped",
      "ra ction",
      "ra ising",
      "ra lia",
      "beg ged",
      "po p",
      "po pe",
      "po ky",
      "po sal",
      "po intment",
      "po ker",
      "po site",
      "de mn",
      "de lay",
      "de epe",
      "de pends",
      "de ath",
      "down wards",
      "down ward",
      "wer en",
      "whe never",
      "whe els",
      "know n",
      "un g",
      "un just",
      "un able",
      "un will",
      "un cor",
      "un lock",
      "un civil",
      "un twist",
      "un usually",
      "ink ing",
      "ink stand",
      "our ce",
      "our selves",
      "like s",
      "ca per",
      "ca ckled",
      "ca momile",
      "che ap",
      "che ek",
      "che ated",
      "che erfully",
      "some one",
      "some how",
      "co at",
      "co st",
      "co ld",
      "co ast",
      "co di",
      "am onds",
      "fo lding",
      "Queen s",
      "get ed",
      "et s",
      "us urpation",
      "any where",
      "ex ist",
      "ex tr",
      "ex ts",
      "ex act",
      "ex clam",
      "bit ter",
      "bit ion",
      "gr ant",
      "gr umbled",
      "pp ers",
      "si e",
      "si zes",
      "con quest",
      "con sent",
      "con tr",
      "con sult",
      "con du",
      "con tent",
      "con demn",
      "ju g",
      "who m",
      "King s",
      "pl ac",
      "pl enty",
      "ph asis",
      "bo on",
      "bo re",
      "bo ard",
      "bo ldly",
      "can not",
      "can vas",
      "wor m",
      "wor ry",
      "wor ried",
      "too d",
      "ple ss",
      "ple te",
      "ul ous",
      "ul ties",
      "Cat ch",
      "af fair",
      "af ford",
      "af fection",
      "lo se",
      "lo ving",
      "lo sing",
      "lo dging",
      "vo king",
      "vo lved",
      "how led",
      "right ly",
      "their s",
      "ure dly",
      "end ed",
      "per mitted",
      "ack ing",
      "der ed",
      "just ice",
      "ho llow",
      "ho lid",
      "ious er",
      "read ily",
      "ment s",
      "tur key",
      "never theless",
      "TH AN",
      "TH ING",
      "TH RU",
      "TH ROU",
      "lar k",
      "ish ing",
      "ish ly",
      "over head",
      "over come",
      "fore paws",
      "pi geon",
      "ven th",
      "min eral",
      "OU S",
      "OU T",
      "OU TS",
      "back s",
      "mar ched",
      "el ids",
      "ey ed",
      "ey elids",
      "fa il",
      "fa vour",
      "fa voured",
      "hand some",
      "hand writing",
      "man s",
      "man ners",
      "man aging",
      "cur ly",
      "cur ving",
      "cur tain",
      "cur ls",
      "cur rant",
      "cur tse",
      "cat tle",
      "cat erpillar",
      "di e",
      "di ed",
      "di ve",
      "di bly",
      "di ligently",
      "di amonds",
      "low er",
      "low ing",
      "ru den",
      "ru shed",
      "ru mbling",
      "ru bbed",
      "There fore",
      "large st",
      "door way",
      "So on",
      "So les",
      "Th ough",
      "Th inking",
      "il s",
      "il t",
      "la use",
      "la zy",
      "la ughter",
      "la zily",
      "la belled",
      "spe ed",
      "spe ll",
      "grow ling",
      "grow led",
      "grow ls",
      "ta les",
      "we en",
      "xt een",
      "ac ter",
      "ac cus",
      "ac custo",
      "ac cept",
      "pleas ing",
      "pleas es",
      "pleas anter",
      "wonder ed",
      "te eth",
      "te ases",
      "wa it",
      "com mon",
      "com mot",
      "com pany",
      "com plete",
      "cut ting",
      "den ies",
      "den ial",
      "pt y",
      "under neat",
      "find s",
      "ic ulous",
      "tre mulous",
      "tea ching",
      "tea pot",
      "than k",
      "than ked",
      "set tle",
      "set ting",
      "Co ming",
      "Co llar",
      "Co ils",
      "ble eds",
      "gl and",
      "gl oom",
      "gl anced",
      "op inion",
      "op posite",
      "old est",
      "mean while",
      "pre ss",
      "pre vent",
      "pre ssing",
      "fan ning",
      "fan ned",
      "child hood",
      "while s",
      "He ads",
      "call ing",
      "gu st",
      "gu ard",
      "gu ilt",
      "kne el",
      "kne lt",
      "pa ce",
      "pa used",
      "pa pers",
      "pro ves",
      "pro secut",
      "pro posal",
      "pro voking",
      "wal rus",
      "less en",
      "imp ati",
      "cro codi",
      "eat s",
      "eat ing",
      "eat en",
      "house s",
      "house maid",
      "spo ken",
      "tain ly",
      "curious er",
      "remember ing",
      "dre ssed",
      "hear th",
      "shed ding",
      "execut e",
      "execut es",
      "dden ly",
      "mor sel",
      "sto le",
      "sto cking",
      "sto pping",
      "wat ers",
      "HA D",
      "cl ubs",
      "cl asped",
      "clo ser",
      "hi ppo",
      "sup ple",
      "fl own",
      "fl ock",
      "fl ust",
      "fl utter",
      "fl ashed",
      "fl urry",
      "fl ung",
      "pu sh",
      "pu ff",
      "red uc",
      "Who ever",
      "where upon",
      "Din n",
      "Her ald",
      "jo gged",
      "jo ys",
      "pr ote",
      "pr inted",
      "pr onoun",
      "sent enced",
      "tr ay",
      "thr one",
      "thr own",
      "list ened",
      "cho ke",
      "cho king",
      "foot men",
      "play ed",
      "IN SIDE",
      "IT S",
      "IT IO",
      "far ther",
      "may n",
      "may be",
      "part s",
      "part ner",
      "part ners",
      "tin ent",
      "plain ly",
      "THE N",
      "THE SE",
      "THE IR",
      "speak er",
      "happen ing",
      "close ly",
      "puzz le",
      "answer s",
      "RE D",
      "RE TUR",
      "game s",
      "stand ing",
      "whis tle",
      "whis pers",
      "shri mp",
      "shri eked",
      "fee bly",
      "queer est",
      "hedge s",
      "appe aring",
      "appe aled",
      "In volved",
      "VE NT",
      "bir thday",
      "bus y",
      "cti ce",
      "gra vy",
      "gra zed",
      "gra ceful",
      "glo be",
      "mind ed",
      "ask ance",
      "shar ing",
      "shar ks",
      "butter ed",
      "butter cup",
      "butter fly",
      "hurry ing",
      "interrup t",
      "An tip",
      "An ything",
      "LL EN",
      "dou ble",
      "fur y",
      "fur ious",
      "fur iously",
      "pass ing",
      "hel pless",
      "reas ons",
      "ener getic",
      "soldi er",
      "grin s",
      "grin ning",
      "conversation s",
      "box ed",
      "trial s",
      "listen ers",
      "AN GE",
      "cr ab",
      "cr ashed",
      "cr ouched",
      "car ry",
      "car rier",
      "fright en",
      "stoo l",
      "wo re",
      "wo ke",
      "belie ved",
      "adv ice",
      "adv ise",
      "pper y",
      "sig n",
      "twink led",
      "dream y",
      "dream ing",
      "dream ed",
      "learn ed",
      "doub ling",
      "doub led",
      "help ed",
      "reason able",
      "Would n",
      "bow ing",
      "bro ther",
      "cre ep",
      "cla pping",
      "four th",
      "pri ze",
      "sp ot",
      "sp ite",
      "sp reading",
      "sp rawling",
      "sp ades",
      "sp irited",
      "wood en",
      "sever ity",
      "notic ing",
      "sub mitted",
      "sub dued",
      "qui ver",
      "explain ed",
      "work s",
      "tremb le",
      "moral s",
      "sneez ed",
      "HAT ED",
      "NE D",
      "NE AR",
      "br ain",
      "br ass",
      "br istling",
      "bat hing",
      "draw ing",
      "nat ured",
      "nat uredly",
      "rea ching",
      "chin es",
      "ket tle",
      "plan ning",
      "comfor t",
      "comfor table",
      "comfor tably",
      "YOUR S",
      "fancy ing",
      "!\" ?'",
      "II I",
      "LE AVE",
      "LE SS",
      "Li ke",
      "WI TH",
      "WHAT EVER",
      "aw fully",
      "bur st",
      "bur ning",
      "bur sting",
      "dro p",
      "dro pping",
      "eg g",
      "evid ently",
      "mer rily",
      "pair s",
      "scre aming",
      "att ends",
      "att ended",
      "stupid ly",
      "stupid est",
      "diffic ulties",
      "subject s",
      "pardon ed",
      "school room",
      "viol ence",
      "chimney s",
      "AS E",
      "BE E",
      "BE G",
      "BE FORE",
      "cor ners",
      "des k",
      "des pair",
      "des ks",
      "des erved",
      "dare say",
      "fi x",
      "fi xed",
      "fi shes",
      "fi eld",
      "gre w",
      "gre y",
      "lad der",
      "obst acle",
      "rid ge",
      "rid dle",
      "rid ges",
      "rid iculous",
      "rabbit s",
      "sn out",
      "sn app",
      "sn orting",
      "sor ry",
      "tast es",
      "tru sts",
      "ith ing",
      "ith metic",
      "argu ed",
      "stay s",
      "hop ed",
      "pict ure",
      "pict ured",
      "present ed",
      "finish ing",
      "ign orant",
      "shriek s",
      "procession s",
      "simple ton",
      "AR D",
      "Ad a",
      "Ad vice",
      "Be head",
      "Be fore",
      "Be cause",
      "Qu ick",
      "Re ad",
      "Re peat",
      "Re eling",
      "SO NS",
      "WAS HING",
      "app le",
      "app lause",
      "cle an",
      "cle ared",
      "cru st",
      "din n",
      "dis may",
      "dis obe",
      "dis gust",
      "drink ing",
      "em phasis",
      "em pty",
      "fig ures",
      "fire place",
      "kno ck",
      "kno cked",
      "lock ed",
      "pit ied",
      "spl ashed",
      "spl endid",
      "sque aked",
      "tu lip",
      "tra ps",
      "tra mpl",
      "tun nel",
      "uck les",
      "van ishing",
      "wand er",
      "ince ssantly",
      "remain ing",
      "stick s",
      "fellow s",
      "poin ted",
      "uncomfor tably",
      "offic er",
      "indign ant",
      "grun t",
      "jud ging",
      "twel fth",
      "love liest",
      "hope less",
      "hope ful",
      "pret end",
      "pret ending",
      "pret ty",
      "pret tier",
      "pret exts",
      "coun ting",
      "coun try",
      "sorrow s",
      "argument s",
      "Can ary",
      "Can terbur",
      "EN D",
      "HI GH",
      "HO W",
      "Nor mans",
      "Sh y",
      "Sh an",
      "Sh ark",
      "TO OK",
      "TS EY",
      "au dibly",
      "ax is",
      "ax es",
      "bank s",
      "clear er",
      "clear ly",
      "dark ness",
      "fill s",
      "fla me",
      "fla pper",
      "fla vour",
      "fla ppers",
      "ob long",
      "pur ple",
      "pur pose",
      "patter n",
      "sli ppery",
      "real ity",
      "behead ing",
      "upset ting",
      "tip lication",
      "fortun ately",
      "noise s",
      "peep ing",
      "quick er",
      "quarre l",
      "quarre lled",
      "expe cted",
      "hoarse ly",
      "elbow s",
      "fair y",
      "fair ly",
      "disa gree",
      "week s",
      "sett ling",
      "cross ly",
      "letter s",
      "beaut i",
      "passion ate",
      "SOME BODY",
      "SOME WHERE",
      "SOME THING",
      "straight ened",
      "straight ening",
      "immedi ate",
      "telesco pes",
      "BO OTS",
      "Ch ange",
      "Ch orus",
      "Ch rist",
      "DO N",
      "DO TH",
      "DO ES",
      "ES Q",
      "Ed gar",
      "Lat in",
      "May be",
      "QU EEN",
      "Sup press",
      "WO NDER",
      "act ually",
      "blow s",
      "bran ch",
      "cri es",
      "da ughter",
      "dri ve",
      "dri est",
      "dri pping",
      "duc ed",
      "eel s",
      "fight ing",
      "gi ven",
      "humb le",
      "ie th",
      "kill s",
      "kill ing",
      "ma ps",
      "ma chines",
      "mis chief",
      "pin ch",
      "pot amus",
      "pain t",
      "pun ished",
      "pun ching",
      "prom ise",
      "prom ised",
      "prom ising",
      "rat s",
      "rat tle",
      "sk urried",
      "sk irt",
      "sk imming",
      "ser iously",
      "ser ies",
      "smo ke",
      "tis piece",
      "twent ieth",
      "tumb led",
      "attempt s",
      "attempt ed",
      "res ource",
      "reco gn",
      "relie ved",
      "respect able",
      "respect ful",
      "eng ine",
      "eng aged",
      "encour aged",
      "lif ted",
      "meet ing",
      "addre ssing",
      "alarm ed",
      "posit ively",
      "decl ared",
      "exam ining",
      "six pence",
      "THER E",
      "Some body",
      "accoun t",
      "accoun ting",
      "accoun ts",
      "deny ing",
      "swallow ing",
      "swallow ed",
      "appear ance",
      "burn t",
      "fron tispiece",
      "intro duced",
      "disap pointment",
      "beautif y",
      "pencil s",
      "uneas y",
      "explanation s",
      "accident ally",
      "AD E",
      "AD VENT",
      "Al as",
      "Al ways",
      "ED ITIO",
      "Im agine",
      "Im prove",
      "Last ly",
      "MI LE",
      "MI LLEN",
      "NT Y",
      "OVE S",
      "PLE ASE",
      "PLE NTY",
      "SE LF",
      "Se e",
      "Se als",
      "St and",
      "St upid",
      "Su ch",
      "Su ddenly",
      "Sto le",
      "Sto len",
      "VII I",
      "Wr ite",
      "Wr ithing",
      "bl own",
      "bl acking",
      "bar king",
      "bar ley",
      "brush ing",
      "cir cle",
      "cir cum",
      "cra zy",
      "cart wheels",
      "dr owned",
      "dr aggled",
      "ele gant",
      "ele venth",
      "fain t",
      "fain tly",
      "fif th",
      "fif teen",
      "fra me",
      "fra mes",
      "fam ily",
      "fam ili",
      "farm er",
      "hat ching",
      "hatter s",
      "kiss ed",
      "mourn ful",
      "mourn fully",
      "pat ted",
      "pat riotic",
      "pull ing",
      "pull ed",
      "sand s",
      "sof t",
      "sof tly",
      "sca le",
      "sca ly",
      "tou ch",
      "tou gher",
      "treat ed",
      "var ious",
      "var iation",
      "wag s",
      "invent ed",
      "ref used",
      "ref resh",
      "cei ling",
      "sal mon",
      "sauce pan",
      "sauce pans",
      "lead ing",
      "lead ers",
      "isit ively",
      "memor y",
      "memor andum",
      "ster nly",
      "sting y",
      "char ges",
      "char acter",
      "chain s",
      "terri er",
      "terri bly",
      "shill ing",
      "shill ings",
      "feather s",
      "moder n",
      "moder ate",
      "mus cular",
      "raven s",
      "uncom mon",
      "uncom monly",
      "expre ssion",
      "expre ssing",
      "OUR S",
      "rust ling",
      "rust led",
      "laugh ing",
      "undo ing",
      "unders tood",
      "waist coat",
      "complain ing",
      "complain ed",
      "produc ing",
      "produc ed",
      "croque ting",
      "croque ted",
      "clam our",
      "trick s",
      "trick ling",
      "HEAR TS",
      "HEAR THRU",
      "couple s",
      "furrow s",
      "signif y",
      "signif ies",
      "desper ate",
      "desper ately",
      "truth ful",
      "squee ze",
      "squee zed",
      "dais y",
      "dais ies",
      "FUL CRU",
      "murder ing",
      "annoy ed",
      "neighbour ing",
      "uglify ing",
      "occasion al",
      "occasion ally",
      "Am bition",
      "Ar ithmetic",
      "Ahe m",
      "Athe ling",
      "Aust ralia",
      "Br andy",
      "Bes ides",
      "Bir ds",
      "Bet ween",
      "Boot s",
      "Beg in",
      "BUS Y",
      "CI OUS",
      "Cl assic",
      "Cer tainly",
      "Car roll",
      "Cur iouser",
      "Cro quet",
      "CUR TSEY",
      "COUR T",
      "Der ision",
      "Dri ve",
      "Dist raction",
      "Ea ch",
      "El sie",
      "En gland",
      "EVERY BODY",
      "EVE N",
      "Evid ence",
      "FO OT",
      "FR OM",
      "Fain ting",
      "Fif teenth",
      "Four teenth",
      "Fet ch",
      "Fort y",
      "FEN DER",
      "GG ARD",
      "Ge ography",
      "Gri ef",
      "Gra mmar",
      "Hj ckrrh",
      "Ho le",
      "Had n",
      "Hard ly",
      "Ind eed",
      "Idi ot",
      "KNO W",
      "Lit tle",
      "Lon don",
      "Lea ve",
      "Lac ie",
      "Lau ghing",
      "Lew is",
      "MY SELF",
      "Mag pie",
      "Mul tiplication",
      "MAR MAL",
      "Ni le",
      "Near ly",
      "NIU M",
      "OR ANGE",
      "PR OVES",
      "Pu ss",
      "Pin ch",
      "PER SONS",
      "Part y",
      "PRE CIOUS",
      "POCK ET",
      "Ru le",
      "RAB BIT",
      "RIGH T",
      "Si xteen",
      "Sw im",
      "Sent ence",
      "Sti gand",
      "Sha kespe",
      "Sea ography",
      "SOU P",
      "Stre tching",
      "SWI M",
      "Stu ff",
      "SHO ES",
      "SLU GGARD",
      "Ta le",
      "Tal king",
      "Tri ms",
      "Till ie",
      "Twent y",
      "Tho se",
      "TRU E",
      "TCO AT",
      "URE S",
      "Wa iting",
      "WAT CH",
      "WAIS TCOAT",
      "Ze aland",
      "avo id",
      "ban quet",
      "ball s",
      "bal anced",
      "bra ve",
      "bree ze",
      "bla me",
      "baw led",
      "blad es",
      "cli mb",
      "cow ard",
      "cher ry",
      "cent re",
      "cal mly",
      "card board",
      "cun ning",
      "cong er",
      "crep t",
      "craw led",
      "cust ard",
      "dain ties",
      "dun ce",
      "fid geted",
      "fle w",
      "fad ing",
      "foo lish",
      "gg ling",
      "gall ons",
      "gain ed",
      "glar ing",
      "hor se",
      "hone st",
      "hast e",
      "hund red",
      "hig hest",
      "jell y",
      "jour ney",
      "kn uckles",
      "lin es",
      "lou der",
      "link ed",
      "lam ps",
      "lang uid",
      "lull aby",
      "leng th",
      "mall ets",
      "mag ic",
      "nast y",
      "oy ster",
      "pow dered",
      "pra ctice",
      "pite ous",
      "pant ed",
      "pati ence",
      "sue t",
      "sco lded",
      "swe et",
      "scr atching",
      "slight est",
      "scra mbling",
      "tit tered",
      "tid y",
      "tink ling",
      "ture en",
      "vag ue",
      "vul gar",
      "vine gar",
      "wid er",
      "war ning",
      "wri ggling",
      "wif e",
      "wra pping",
      "wep t",
      "wear ily",
      "wel come",
      "yell ed",
      "yel p",
      "zig zag",
      "inso lence",
      "inqu isitively",
      "inju re",
      "incl ined",
      "inqui red",
      "anci ent",
      "athi es",
      "reti re",
      "remed ies",
      "recei ved",
      "tomor row",
      "thir teen",
      "thunders torm",
      "educat ions",
      "enor mous",
      "enjo y",
      "engra ved",
      "seld om",
      "secre t",
      "arri ved",
      "arru m",
      "arrang ed",
      "shepher d",
      "belo ved",
      "adop tion",
      "stal k",
      "stance s",
      "string s",
      "stren gth",
      "stret ching",
      "stead y",
      "choo sing",
      "chry salis",
      "chuck led",
      "veget able",
      "velve t",
      "shif ting",
      "ripp ling",
      "news papers",
      "roset ree",
      "histori es",
      "imper tinent",
      "deepe st",
      "unwill ingly",
      "uncor ked",
      "unlock ing",
      "caper ing",
      "cheek s",
      "exist ence",
      "extr as",
      "exclam ation",
      "consent ed",
      "contr adicted",
      "consult ation",
      "condu ct",
      "plac ed",
      "affection ately",
      "holid ay",
      "THROU GH",
      "OUTS IDE",
      "fail ure",
      "favour ite",
      "currant s",
      "curtse y",
      "ruden ess",
      "accus ation",
      "accusto med",
      "accept ance",
      "commot ion",
      "complete ly",
      "underneat h",
      "gloom ily",
      "prosecut e",
      "impati ent",
      "crocodi le",
      "stocking s",
      "hippo potamus",
      "flust ered",
      "flutter ed",
      "puff ed",
      "reduc ed",
      "prote ction",
      "pronoun ced",
      "RETUR NED",
      "Antip athies",
      "snapp ishly",
      "disobe y",
      "splendid ly",
      "trampl ed",
      "Canterbur y",
      "Christ mas",
      "WONDER LAND",
      "recogn ised",
      "ADVENT URES",
      "EDITIO N",
      "MILLEN NIUM",
      "circum stances",
      "famili arly",
      "variation s",
      "refresh ments",
      "HEARTHRU G",
      "FULCRU M",
      "Classic s",
      "CURTSEY ING",
      "MARMAL ADE",
      "Sixteen th",
      "Shakespe are"
    ]
  }
}